unsigned char sine_model_FP16_quantized_tflite[] = {
  0x1c, 0x00, 0x00, 0x00, 0x54, 0x46, 0x4c, 0x33, 0x14, 0x00, 0x20, 0x00,
  0x1c, 0x00, 0x18, 0x00, 0x14, 0x00, 0x10, 0x00, 0x0c, 0x00, 0x00, 0x00,
  0x08, 0x00, 0x04, 0x00, 0x14, 0x00, 0x00, 0x00, 0x1c, 0x00, 0x00, 0x00,
  0x98, 0x00, 0x00, 0x00, 0x20, 0x01, 0x00, 0x00, 0x28, 0x15, 0x00, 0x00,
  0x38, 0x15, 0x00, 0x00, 0x20, 0x23, 0x00, 0x00, 0x03, 0x00, 0x00, 0x00,
  0x01, 0x00, 0x00, 0x00, 0x10, 0x00, 0x00, 0x00, 0x00, 0x00, 0x0a, 0x00,
  0x10, 0x00, 0x0c, 0x00, 0x08, 0x00, 0x04, 0x00, 0x0a, 0x00, 0x00, 0x00,
  0x0c, 0x00, 0x00, 0x00, 0x1c, 0x00, 0x00, 0x00, 0x3c, 0x00, 0x00, 0x00,
  0x0f, 0x00, 0x00, 0x00, 0x73, 0x65, 0x72, 0x76, 0x69, 0x6e, 0x67, 0x5f,
  0x64, 0x65, 0x66, 0x61, 0x75, 0x6c, 0x74, 0x00, 0x01, 0x00, 0x00, 0x00,
  0x04, 0x00, 0x00, 0x00, 0x60, 0xff, 0xff, 0xff, 0x1e, 0x00, 0x00, 0x00,
  0x04, 0x00, 0x00, 0x00, 0x08, 0x00, 0x00, 0x00, 0x6f, 0x75, 0x74, 0x70,
  0x75, 0x74, 0x5f, 0x30, 0x00, 0x00, 0x00, 0x00, 0x01, 0x00, 0x00, 0x00,
  0x04, 0x00, 0x00, 0x00, 0x8a, 0xeb, 0xff, 0xff, 0x04, 0x00, 0x00, 0x00,
  0x0f, 0x00, 0x00, 0x00, 0x6b, 0x65, 0x72, 0x61, 0x73, 0x5f, 0x74, 0x65,
  0x6e, 0x73, 0x6f, 0x72, 0x5f, 0x32, 0x32, 0x00, 0x03, 0x00, 0x00, 0x00,
  0x64, 0x00, 0x00, 0x00, 0x2c, 0x00, 0x00, 0x00, 0x04, 0x00, 0x00, 0x00,
  0xb0, 0xff, 0xff, 0xff, 0x22, 0x00, 0x00, 0x00, 0x04, 0x00, 0x00, 0x00,
  0x13, 0x00, 0x00, 0x00, 0x43, 0x4f, 0x4e, 0x56, 0x45, 0x52, 0x53, 0x49,
  0x4f, 0x4e, 0x5f, 0x4d, 0x45, 0x54, 0x41, 0x44, 0x41, 0x54, 0x41, 0x00,
  0xd4, 0xff, 0xff, 0xff, 0x21, 0x00, 0x00, 0x00, 0x04, 0x00, 0x00, 0x00,
  0x19, 0x00, 0x00, 0x00, 0x72, 0x65, 0x64, 0x75, 0x63, 0x65, 0x64, 0x5f,
  0x70, 0x72, 0x65, 0x63, 0x69, 0x73, 0x69, 0x6f, 0x6e, 0x5f, 0x73, 0x75,
  0x70, 0x70, 0x6f, 0x72, 0x74, 0x00, 0x00, 0x00, 0x08, 0x00, 0x0c, 0x00,
  0x08, 0x00, 0x04, 0x00, 0x08, 0x00, 0x00, 0x00, 0x20, 0x00, 0x00, 0x00,
  0x04, 0x00, 0x00, 0x00, 0x13, 0x00, 0x00, 0x00, 0x6d, 0x69, 0x6e, 0x5f,
  0x72, 0x75, 0x6e, 0x74, 0x69, 0x6d, 0x65, 0x5f, 0x76, 0x65, 0x72, 0x73,
  0x69, 0x6f, 0x6e, 0x00, 0x23, 0x00, 0x00, 0x00, 0x04, 0x14, 0x00, 0x00,
  0xfc, 0x13, 0x00, 0x00, 0xc8, 0x13, 0x00, 0x00, 0x8c, 0x13, 0x00, 0x00,
  0x78, 0x13, 0x00, 0x00, 0x54, 0x13, 0x00, 0x00, 0x1c, 0x13, 0x00, 0x00,
  0xbc, 0x12, 0x00, 0x00, 0x84, 0x12, 0x00, 0x00, 0xa4, 0x0f, 0x00, 0x00,
  0x54, 0x09, 0x00, 0x00, 0x04, 0x03, 0x00, 0x00, 0x64, 0x01, 0x00, 0x00,
  0x40, 0x01, 0x00, 0x00, 0x38, 0x01, 0x00, 0x00, 0x30, 0x01, 0x00, 0x00,
  0x28, 0x01, 0x00, 0x00, 0x20, 0x01, 0x00, 0x00, 0x18, 0x01, 0x00, 0x00,
  0x10, 0x01, 0x00, 0x00, 0x08, 0x01, 0x00, 0x00, 0x00, 0x01, 0x00, 0x00,
  0xf8, 0x00, 0x00, 0x00, 0xf0, 0x00, 0x00, 0x00, 0xe8, 0x00, 0x00, 0x00,
  0xe0, 0x00, 0x00, 0x00, 0xd8, 0x00, 0x00, 0x00, 0xd0, 0x00, 0x00, 0x00,
  0xc8, 0x00, 0x00, 0x00, 0xc0, 0x00, 0x00, 0x00, 0xb8, 0x00, 0x00, 0x00,
  0xb0, 0x00, 0x00, 0x00, 0x90, 0x00, 0x00, 0x00, 0x74, 0x00, 0x00, 0x00,
  0x04, 0x00, 0x00, 0x00, 0xc2, 0xec, 0xff, 0xff, 0x04, 0x00, 0x00, 0x00,
  0x60, 0x00, 0x00, 0x00, 0x0c, 0x00, 0x00, 0x00, 0x08, 0x00, 0x0e, 0x00,
  0x08, 0x00, 0x04, 0x00, 0x08, 0x00, 0x00, 0x00, 0x10, 0x00, 0x00, 0x00,
  0x28, 0x00, 0x00, 0x00, 0x00, 0x00, 0x06, 0x00, 0x08, 0x00, 0x04, 0x00,
  0x06, 0x00, 0x00, 0x00, 0x04, 0x00, 0x00, 0x00, 0x01, 0x00, 0x00, 0x00,
  0xe9, 0x03, 0x00, 0x00, 0x0c, 0x00, 0x18, 0x00, 0x14, 0x00, 0x10, 0x00,
  0x0c, 0x00, 0x04, 0x00, 0x0c, 0x00, 0x00, 0x00, 0x81, 0xf3, 0x9b, 0xe1,
  0x88, 0xff, 0x0c, 0x51, 0x02, 0x00, 0x00, 0x00, 0x02, 0x00, 0x00, 0x00,
  0x04, 0x00, 0x00, 0x00, 0x06, 0x00, 0x00, 0x00, 0x32, 0x2e, 0x31, 0x37,
  0x2e, 0x30, 0x00, 0x00, 0x2e, 0xed, 0xff, 0xff, 0x04, 0x00, 0x00, 0x00,
  0x0b, 0x00, 0x00, 0x00, 0x66, 0x70, 0x31, 0x36, 0x61, 0x63, 0x63, 0x66,
  0x70, 0x33, 0x32, 0x00, 0x46, 0xed, 0xff, 0xff, 0x04, 0x00, 0x00, 0x00,
  0x10, 0x00, 0x00, 0x00, 0x31, 0x2e, 0x31, 0x35, 0x2e, 0x30, 0x00, 0x00,
  0x00, 0x00, 0x00, 0x00, 0x00, 0x00, 0x00, 0x00, 0x60, 0xdf, 0xff, 0xff,
  0x64, 0xdf, 0xff, 0xff, 0x68, 0xdf, 0xff, 0xff, 0x6c, 0xdf, 0xff, 0xff,
  0x70, 0xdf, 0xff, 0xff, 0x74, 0xdf, 0xff, 0xff, 0x78, 0xdf, 0xff, 0xff,
  0x7c, 0xdf, 0xff, 0xff, 0x80, 0xdf, 0xff, 0xff, 0x84, 0xdf, 0xff, 0xff,
  0x88, 0xdf, 0xff, 0xff, 0x8c, 0xdf, 0xff, 0xff, 0x90, 0xdf, 0xff, 0xff,
  0x94, 0xdf, 0xff, 0xff, 0x98, 0xdf, 0xff, 0xff, 0x9c, 0xdf, 0xff, 0xff,
  0xa0, 0xdf, 0xff, 0xff, 0xa4, 0xdf, 0xff, 0xff, 0xaa, 0xed, 0xff, 0xff,
  0x04, 0x00, 0x00, 0x00, 0x14, 0x00, 0x00, 0x00, 0xb1, 0x2f, 0xbc, 0x39,
  0x16, 0xba, 0xdc, 0x31, 0x15, 0xb8, 0x30, 0x9f, 0x34, 0x33, 0x22, 0x32,
  0x29, 0x39, 0x9e, 0x38, 0xca, 0xed, 0xff, 0xff, 0x04, 0x00, 0x00, 0x00,
  0x90, 0x01, 0x00, 0x00, 0x1b, 0xb8, 0x3b, 0x34, 0x61, 0x34, 0x91, 0x35,
  0x70, 0xa5, 0x90, 0x1f, 0x79, 0xb4, 0xf8, 0x34, 0x0f, 0xb3, 0xd5, 0x35,
  0xe8, 0x31, 0x13, 0x2c, 0x23, 0xb3, 0x4c, 0xb5, 0x0e, 0xae, 0x48, 0x33,
  0xdc, 0xb6, 0x89, 0x37, 0x90, 0x33, 0x45, 0x37, 0x31, 0x34, 0x47, 0xaa,
  0x0a, 0xb4, 0x0b, 0x35, 0xff, 0x31, 0x14, 0x37, 0x0a, 0x30, 0x3f, 0xb1,
  0x84, 0xb2, 0x8c, 0xb5, 0x17, 0xb6, 0x95, 0xb7, 0x77, 0xae, 0x4b, 0x35,
  0x26, 0xb1, 0x4f, 0x2e, 0xb8, 0xb6, 0xe3, 0x9a, 0xf6, 0xb5, 0x72, 0xb0,
  0x4a, 0x38, 0x60, 0xb5, 0x62, 0x2c, 0x25, 0x35, 0x0b, 0xb8, 0x67, 0x36,
  0xd4, 0xae, 0x75, 0x35, 0x34, 0x80, 0x40, 0xb8, 0x57, 0x32, 0x8f, 0xb0,
  0xf4, 0x34, 0x2f, 0x37, 0x3f, 0xb4, 0x25, 0x35, 0x56, 0xb3, 0xc0, 0xb7,
  0x66, 0xb7, 0x2a, 0xa9, 0x89, 0x22, 0x01, 0x36, 0x72, 0x33, 0xbb, 0xb3,
  0x89, 0x32, 0x66, 0x2f, 0x84, 0x38, 0xcf, 0x1b, 0x71, 0x35, 0xc5, 0x2d,
  0x71, 0xb5, 0xec, 0xb2, 0x19, 0x2e, 0x5a, 0xb7, 0x4c, 0x35, 0xfa, 0xa7,
  0xeb, 0xb6, 0x5a, 0x38, 0xa4, 0x30, 0x4a, 0xae, 0x4f, 0x38, 0xa7, 0xb1,
  0x43, 0xb5, 0x56, 0x37, 0x2e, 0xb7, 0x92, 0x33, 0xb7, 0xb6, 0x2f, 0xb3,
  0x4b, 0xad, 0xe1, 0xae, 0x60, 0xb4, 0xab, 0xb6, 0xc3, 0x37, 0xab, 0xb4,
  0x23, 0x33, 0x31, 0x36, 0xbc, 0x36, 0x97, 0xb4, 0x13, 0xb5, 0x94, 0x36,
  0xa4, 0xaf, 0x8c, 0x32, 0x30, 0x35, 0x9e, 0x2e, 0xbf, 0x1c, 0x81, 0x34,
  0x13, 0x2c, 0x29, 0xae, 0xd2, 0x2c, 0xca, 0x32, 0x61, 0xb3, 0x44, 0x14,
  0x95, 0x2e, 0x63, 0x36, 0x23, 0xa4, 0xdf, 0xb3, 0x0a, 0x34, 0x24, 0xb5,
  0x7d, 0x31, 0xa9, 0xaf, 0xe5, 0x2e, 0xbc, 0x21, 0x50, 0x2d, 0x40, 0xb4,
  0x8d, 0x2b, 0x21, 0xaf, 0xaa, 0x24, 0x43, 0x34, 0xc8, 0x31, 0x93, 0x2d,
  0x54, 0xb8, 0x1b, 0xad, 0xab, 0xb5, 0xea, 0xb5, 0xb0, 0x36, 0xad, 0x34,
  0x5c, 0x36, 0xbf, 0x30, 0x5f, 0x38, 0x1b, 0x34, 0xf5, 0x31, 0x40, 0xaf,
  0xee, 0x2a, 0xf2, 0x33, 0x44, 0xb4, 0x9e, 0x25, 0x67, 0xb0, 0xd2, 0x35,
  0xa8, 0xb1, 0x25, 0x35, 0x85, 0xb8, 0x12, 0xac, 0x7b, 0x33, 0x5a, 0xb5,
  0x4a, 0x27, 0xe9, 0x2e, 0x9f, 0x2e, 0xbd, 0x37, 0x90, 0xad, 0xe6, 0x2c,
  0xdb, 0xab, 0xa2, 0xae, 0xb7, 0x34, 0xbc, 0x2c, 0x0c, 0x2b, 0x17, 0x31,
  0xb7, 0x1e, 0x00, 0xab, 0x8d, 0x28, 0x72, 0x35, 0xae, 0xb5, 0x8d, 0xb2,
  0x5d, 0x32, 0x69, 0x35, 0xf1, 0xac, 0x6e, 0xb3, 0x54, 0x36, 0x04, 0xad,
  0x7f, 0xb5, 0xc9, 0x27, 0xbb, 0xa9, 0xfd, 0xb3, 0x65, 0x33, 0x1f, 0x36,
  0xa4, 0x1a, 0xde, 0x34, 0xcb, 0x36, 0xfe, 0xb6, 0xf6, 0x34, 0xdf, 0x34,
  0xae, 0xb0, 0x4a, 0xb0, 0x11, 0xaf, 0x92, 0xae, 0xb1, 0xb6, 0x47, 0x2d,
  0x7b, 0x35, 0x47, 0x38, 0x5b, 0xaf, 0x8a, 0xb4, 0x66, 0xef, 0xff, 0xff,
  0x04, 0x00, 0x00, 0x00, 0x40, 0x06, 0x00, 0x00, 0x55, 0xb0, 0xf3, 0x29,
  0xa9, 0x30, 0x9b, 0x34, 0xd1, 0x34, 0x87, 0xa9, 0x92, 0x24, 0x2c, 0x33,
  0xf2, 0x33, 0x34, 0x35, 0xb0, 0xae, 0x1b, 0x34, 0x44, 0xb4, 0x22, 0xb0,
  0xbd, 0xb4, 0x1c, 0xb6, 0x7c, 0xb6, 0x4b, 0x33, 0xb3, 0xb1, 0xf0, 0xac,
  0x29, 0x34, 0xab, 0x34, 0x2b, 0x2f, 0xc4, 0x34, 0xc4, 0x35, 0x44, 0x34,
  0x33, 0xb1, 0xce, 0x34, 0x0b, 0xae, 0xe5, 0x31, 0x36, 0xb2, 0x24, 0xb5,
  0x59, 0xac, 0xc8, 0x35, 0xf9, 0x2f, 0x8e, 0xb3, 0x2c, 0xb1, 0x8a, 0x34,
  0xc5, 0xb4, 0x68, 0x35, 0x60, 0x2f, 0x3d, 0xad, 0x6c, 0xa9, 0x3a, 0x33,
  0x30, 0xa7, 0xa5, 0x31, 0xd1, 0xb4, 0xea, 0x34, 0x7a, 0x32, 0xdb, 0x2d,
  0x8b, 0x30, 0xc1, 0xb4, 0xb2, 0x2d, 0xbe, 0xb3, 0xaf, 0xb2, 0x9b, 0xb0,
  0x69, 0x1c, 0x59, 0xa4, 0xa4, 0x9d, 0x7b, 0xb1, 0x79, 0xad, 0xb0, 0xb2,
  0xfc, 0xaf, 0x4a, 0x2b, 0xcc, 0x31, 0x6d, 0xa7, 0x7a, 0x2e, 0xa5, 0x2f,
  0x6e, 0xb4, 0x18, 0xb0, 0x07, 0xaf, 0x7e, 0xae, 0x95, 0x33, 0x86, 0xb4,
  0x02, 0xa7, 0x04, 0xa9, 0x3e, 0x31, 0x25, 0xb4, 0x49, 0xb1, 0x57, 0xb4,
  0x17, 0x32, 0x86, 0xb3, 0x3f, 0xb2, 0x84, 0xaf, 0x16, 0x34, 0xc2, 0x32,
  0x5b, 0xb1, 0x66, 0x23, 0x4c, 0x27, 0x22, 0xaa, 0x6f, 0x2f, 0x03, 0xac,
  0x50, 0xb2, 0x94, 0xb0, 0x64, 0x2c, 0x95, 0xa2, 0x9a, 0xa8, 0xcf, 0x33,
  0x9c, 0xaf, 0xb2, 0xb2, 0xfe, 0x2a, 0x9f, 0x30, 0xb2, 0xa4, 0x55, 0xae,
  0xc4, 0xb2, 0xb5, 0x32, 0x0f, 0xae, 0xd8, 0xac, 0x46, 0x33, 0x3f, 0x30,
  0x12, 0xaf, 0x99, 0xac, 0x69, 0x34, 0xdf, 0xad, 0x3b, 0x34, 0x84, 0xac,
  0x5f, 0x24, 0x8c, 0x30, 0xa0, 0x34, 0x97, 0xb1, 0x8c, 0xaf, 0xb9, 0xaf,
  0x2a, 0xb1, 0xbd, 0x36, 0x4e, 0x33, 0x69, 0x2a, 0xef, 0xac, 0xd4, 0x32,
  0x58, 0x27, 0xa6, 0xb1, 0xc6, 0xaf, 0x8d, 0x34, 0x1f, 0xb6, 0x10, 0xac,
  0x8d, 0x34, 0x1b, 0xb1, 0x6e, 0x2a, 0xf9, 0xb1, 0xe3, 0xa8, 0x23, 0x32,
  0x4a, 0xb4, 0xb1, 0x30, 0x3e, 0xac, 0x8e, 0xb0, 0x04, 0x34, 0x15, 0xb2,
  0x0f, 0x35, 0x97, 0x35, 0x02, 0x33, 0x6c, 0x27, 0x9c, 0x99, 0xd0, 0x18,
  0xf8, 0xb3, 0xc3, 0x31, 0xc0, 0xaa, 0x0c, 0xb7, 0x84, 0xb4, 0xb8, 0xae,
  0x63, 0xb2, 0x7e, 0x31, 0xf7, 0x32, 0x4b, 0xa9, 0xa0, 0x2d, 0x6a, 0x2d,
  0x84, 0xb4, 0xd5, 0xb3, 0xb9, 0xb4, 0x2c, 0x25, 0x83, 0x31, 0xbc, 0x32,
  0x7b, 0xb0, 0x5a, 0xa8, 0x4c, 0xb5, 0x6a, 0x32, 0x3d, 0x31, 0xba, 0xb0,
  0xa6, 0x30, 0x3d, 0xb2, 0xca, 0xb5, 0xb5, 0x30, 0x96, 0x2d, 0x25, 0x34,
  0xf8, 0xb0, 0x6c, 0x30, 0xb5, 0x34, 0xef, 0xb2, 0x40, 0x34, 0xf1, 0x34,
  0x06, 0xae, 0xc9, 0xab, 0x8b, 0xaa, 0xe6, 0xae, 0x7f, 0x25, 0xa9, 0x33,
  0x3f, 0xa2, 0x60, 0x32, 0x3c, 0xb0, 0x16, 0xa4, 0xb3, 0xb2, 0xfb, 0x2d,
  0x24, 0xb4, 0x4c, 0xa9, 0x59, 0x33, 0xaf, 0xac, 0x97, 0x25, 0x0e, 0x31,
  0x4b, 0xb4, 0x28, 0x34, 0x72, 0xab, 0xaa, 0xb2, 0xb9, 0x34, 0x5c, 0x27,
  0xa1, 0xad, 0x23, 0xb4, 0xaf, 0xb0, 0x4e, 0xb4, 0xd0, 0xaf, 0xe8, 0xa8,
  0xfd, 0xb4, 0x4a, 0xb4, 0x4e, 0x34, 0x84, 0xab, 0xca, 0x2d, 0xb2, 0xb3,
  0x6c, 0xaf, 0x65, 0x2e, 0x69, 0xb2, 0x7d, 0xb3, 0xd6, 0x33, 0x79, 0x32,
  0x4a, 0xb2, 0x20, 0x9d, 0x98, 0xb4, 0x77, 0x31, 0x7c, 0xad, 0x73, 0xb0,
  0xe4, 0x9e, 0x0e, 0x35, 0x23, 0x34, 0x7c, 0x34, 0x0d, 0xab, 0x93, 0x2c,
  0xc7, 0x30, 0xdd, 0xac, 0xed, 0xab, 0xa7, 0x30, 0xf7, 0xb2, 0x9c, 0x35,
  0xb2, 0xa9, 0xf5, 0xb3, 0xc8, 0x32, 0x9d, 0xb3, 0x93, 0xb4, 0x8f, 0x2e,
  0x26, 0xa4, 0xf5, 0x33, 0xa9, 0x31, 0x8b, 0xb7, 0x64, 0xb2, 0xd6, 0x34,
  0x6c, 0x26, 0x1f, 0xb2, 0xcf, 0xb1, 0x61, 0xa6, 0xe3, 0x2d, 0x83, 0xac,
  0xd2, 0x31, 0x02, 0x32, 0x8c, 0xaf, 0xa6, 0x32, 0x2c, 0xa9, 0x0c, 0xa7,
  0xc0, 0xb4, 0x47, 0x30, 0xd1, 0xb0, 0x0f, 0xb3, 0xc1, 0x9c, 0x08, 0x27,
  0x6d, 0xb0, 0x5c, 0x31, 0x76, 0x21, 0x75, 0xb1, 0x13, 0xb3, 0x55, 0x2a,
  0xfe, 0x34, 0xc0, 0xb2, 0xbf, 0xb4, 0xdb, 0xac, 0xf3, 0x2e, 0xe7, 0x34,
  0x11, 0xb0, 0x47, 0xb4, 0x3c, 0x34, 0xca, 0xb0, 0x52, 0xaa, 0x28, 0xac,
  0xbe, 0x30, 0x57, 0x30, 0x05, 0xb5, 0x32, 0xb1, 0xdc, 0xa9, 0xb3, 0x2c,
  0x83, 0xab, 0x7e, 0x32, 0xd8, 0xb4, 0x29, 0xa8, 0xc1, 0x20, 0x63, 0xb1,
  0xe0, 0xb4, 0x13, 0xac, 0xdd, 0x31, 0xd2, 0xa8, 0xf7, 0x32, 0xfa, 0x32,
  0x6d, 0x33, 0x1f, 0x31, 0xca, 0xb3, 0x98, 0xb1, 0xdf, 0x30, 0x88, 0x32,
  0xd5, 0x33, 0x38, 0xb2, 0x2d, 0x31, 0x74, 0x2e, 0xa4, 0x31, 0xb9, 0x33,
  0x3b, 0x31, 0x2c, 0x35, 0xdb, 0x32, 0x1c, 0xad, 0xe1, 0xb4, 0x57, 0x32,
  0xc9, 0xaf, 0x94, 0xb0, 0x62, 0x30, 0x2e, 0xb1, 0x72, 0x32, 0x00, 0x2f,
  0xdd, 0x33, 0x78, 0x35, 0xbe, 0x34, 0x47, 0xaf, 0xb7, 0x34, 0xc3, 0xb4,
  0x95, 0x26, 0xde, 0x32, 0xcb, 0xad, 0x4a, 0xb2, 0x98, 0x24, 0xc2, 0xac,
  0xb0, 0xaf, 0x32, 0xb0, 0xb1, 0x30, 0x98, 0x34, 0x32, 0xaa, 0x22, 0xad,
  0x6a, 0xb3, 0xb7, 0xb5, 0x05, 0x32, 0x29, 0x2e, 0xf1, 0x2f, 0xb6, 0xb2,
  0x96, 0x32, 0xad, 0xb5, 0x03, 0x34, 0x98, 0x21, 0xe8, 0x32, 0x02, 0x31,
  0x81, 0x32, 0xeb, 0x2b, 0x3f, 0xac, 0x14, 0x2d, 0x8b, 0x35, 0x4f, 0xb4,
  0x66, 0xb1, 0xdd, 0x28, 0x30, 0xab, 0x46, 0xae, 0x86, 0x34, 0x1f, 0xa0,
  0xcb, 0xb3, 0xdd, 0x2f, 0x9b, 0xae, 0xe0, 0x33, 0x78, 0xb2, 0xb7, 0x35,
  0xc9, 0xb4, 0x34, 0xb8, 0xd6, 0x32, 0x3f, 0x9a, 0xff, 0xb4, 0xcf, 0x35,
  0x6c, 0x95, 0x35, 0xb6, 0x05, 0x34, 0xe9, 0x28, 0x05, 0xad, 0xc8, 0x32,
  0x44, 0x34, 0x1a, 0x35, 0x8d, 0x2e, 0x1a, 0xb0, 0x7b, 0x2e, 0xdc, 0xb0,
  0xb2, 0xb5, 0x1e, 0xb3, 0xc1, 0xa6, 0x7f, 0x35, 0x3f, 0xb0, 0xf1, 0xb3,
  0x5a, 0xb5, 0xc0, 0xb4, 0x7e, 0xac, 0x3a, 0x34, 0x7f, 0xb5, 0x36, 0xae,
  0x2c, 0x31, 0x05, 0xad, 0x41, 0x31, 0xd8, 0x2b, 0x84, 0xb6, 0x70, 0x14,
  0x7b, 0xb1, 0x05, 0xb4, 0xbc, 0x31, 0x11, 0xaf, 0x3b, 0xb0, 0x16, 0x31,
  0x27, 0x32, 0x8a, 0xb6, 0x58, 0xb3, 0xa4, 0xb4, 0x08, 0xa8, 0xa1, 0xb0,
  0x9b, 0xb1, 0x1b, 0x2d, 0x05, 0x2d, 0xb9, 0x33, 0x14, 0xb4, 0x71, 0x23,
  0x2d, 0xad, 0xc8, 0x33, 0x48, 0x32, 0x83, 0xb4, 0x4d, 0xb5, 0x7f, 0x2e,
  0x8b, 0xb0, 0x7b, 0x29, 0x97, 0x30, 0xa8, 0x33, 0xe2, 0xa9, 0x35, 0xb4,
  0x51, 0x32, 0x8b, 0xb0, 0x34, 0x24, 0x8c, 0x31, 0x44, 0x2b, 0xd7, 0x32,
  0x04, 0xb4, 0x14, 0xb2, 0x61, 0x2c, 0x17, 0xa6, 0xc0, 0x34, 0x6e, 0xb0,
  0x3a, 0x29, 0x62, 0xb3, 0xdd, 0x34, 0x5d, 0x30, 0x51, 0xb6, 0xa9, 0xae,
  0x47, 0xb4, 0x18, 0xb4, 0xb7, 0xb4, 0xb9, 0xb0, 0x80, 0xb4, 0x33, 0x34,
  0xb5, 0x2e, 0x61, 0x33, 0x11, 0x2e, 0x74, 0xb0, 0x6a, 0xae, 0xf5, 0x31,
  0x53, 0x32, 0xe6, 0x2c, 0xff, 0x1f, 0xd3, 0xb2, 0x26, 0x31, 0xa5, 0xb4,
  0xad, 0x32, 0x6b, 0xae, 0x55, 0x28, 0x11, 0xaf, 0xb5, 0x33, 0xaf, 0x34,
  0x67, 0xa9, 0xbf, 0xb3, 0xe7, 0xa1, 0xe0, 0x35, 0x79, 0x34, 0x33, 0xb2,
  0xb5, 0x30, 0xab, 0xb2, 0x26, 0x2e, 0x08, 0xb4, 0x96, 0x34, 0x9a, 0xb0,
  0x98, 0x30, 0x10, 0x32, 0xbf, 0xb4, 0xde, 0x2b, 0xf5, 0x30, 0xb1, 0x2f,
  0x79, 0x34, 0xe7, 0x35, 0xda, 0xaa, 0xdb, 0x34, 0x33, 0x32, 0x40, 0x35,
  0x96, 0xb4, 0xb2, 0x34, 0xdd, 0x34, 0x3f, 0x24, 0xe8, 0xa5, 0x3d, 0x34,
  0xd3, 0xb7, 0x31, 0xb1, 0x24, 0xb7, 0x8f, 0x30, 0xb1, 0xa9, 0x1a, 0x32,
  0x72, 0x2c, 0x8f, 0xb6, 0x48, 0x2e, 0x0d, 0x2a, 0xce, 0xb3, 0x29, 0x30,
  0xa8, 0xb1, 0x87, 0x30, 0xdb, 0xb4, 0xba, 0x32, 0x4c, 0xb5, 0x97, 0xb4,
  0x42, 0xb7, 0xf9, 0xad, 0x47, 0x2c, 0x87, 0x1b, 0xe7, 0xb6, 0x37, 0x35,
  0x49, 0x30, 0x05, 0xaf, 0x31, 0xa3, 0xeb, 0xb0, 0x3f, 0xb0, 0x19, 0xb0,
  0x2c, 0x34, 0xf1, 0x2e, 0xf8, 0x36, 0xee, 0x2a, 0xfc, 0xb3, 0x70, 0x9d,
  0xd7, 0x31, 0x66, 0xac, 0x71, 0xae, 0x3a, 0xb4, 0x37, 0x33, 0x01, 0xb5,
  0x0d, 0xb4, 0x93, 0x33, 0x88, 0xb2, 0x01, 0xac, 0x3a, 0xb2, 0x4d, 0x34,
  0x41, 0x28, 0x48, 0xb3, 0xcd, 0xac, 0xa9, 0x29, 0x27, 0x34, 0x5e, 0xb1,
  0x4e, 0xa8, 0x80, 0x30, 0x40, 0xa6, 0x6a, 0x2c, 0x96, 0x9d, 0x18, 0x2a,
  0x22, 0xad, 0xed, 0xb0, 0xf1, 0x33, 0xca, 0xa1, 0xe0, 0xad, 0x03, 0xb4,
  0xd1, 0x2b, 0x08, 0xb0, 0xa6, 0x31, 0x00, 0xb5, 0x89, 0xac, 0xbd, 0x33,
  0xee, 0xb5, 0x9a, 0xa6, 0x88, 0xa7, 0xd6, 0x32, 0x9c, 0xaf, 0x6e, 0x34,
  0x89, 0x29, 0x40, 0x34, 0xc4, 0x2f, 0xbf, 0xb4, 0x15, 0x31, 0x23, 0xb1,
  0xe1, 0x2c, 0xe6, 0x32, 0xd2, 0x34, 0xbc, 0xb0, 0xa6, 0xaf, 0x58, 0x2f,
  0x58, 0x2e, 0x2e, 0x29, 0xcb, 0x20, 0xf7, 0xb4, 0xba, 0x2a, 0xea, 0xb4,
  0x73, 0xb0, 0xf5, 0xb2, 0x56, 0x32, 0x75, 0xa5, 0x56, 0x2a, 0x1c, 0xb5,
  0xa2, 0x35, 0xb1, 0x38, 0xbe, 0x2f, 0x77, 0x35, 0x24, 0xac, 0xf2, 0xa9,
  0x89, 0x31, 0xa6, 0x36, 0x17, 0xa6, 0xfb, 0x31, 0xd1, 0xb4, 0x68, 0x28,
  0xdc, 0x2f, 0x87, 0xb2, 0xae, 0xb4, 0x1b, 0x22, 0x7d, 0xb1, 0x49, 0xa5,
  0x69, 0x2d, 0x05, 0xa4, 0x6a, 0xa1, 0x80, 0xb5, 0xaa, 0x31, 0x2f, 0xb0,
  0x03, 0xa6, 0xcb, 0xaa, 0xd4, 0x30, 0xe0, 0xa7, 0x83, 0xac, 0x29, 0x32,
  0x74, 0xb2, 0x0e, 0xb3, 0x4c, 0x34, 0x78, 0x34, 0x0e, 0xb4, 0xce, 0x34,
  0x61, 0x2f, 0x14, 0x22, 0xd0, 0x26, 0xd4, 0x2a, 0x04, 0xb5, 0x81, 0xb3,
  0x5c, 0x34, 0xb0, 0x31, 0xd9, 0x28, 0xb2, 0x2a, 0x06, 0xaa, 0x0b, 0x33,
  0x28, 0x25, 0xed, 0xaf, 0x42, 0x31, 0x69, 0x31, 0xda, 0xb2, 0x8c, 0x2c,
  0x3c, 0x25, 0xd8, 0x30, 0x98, 0x2d, 0x83, 0x2f, 0xa6, 0x28, 0x8b, 0xac,
  0x2e, 0xb1, 0x10, 0x20, 0xe2, 0xae, 0xc0, 0xa4, 0x2a, 0xb4, 0xa8, 0xb0,
  0x83, 0xb4, 0x10, 0x2c, 0xf1, 0xb1, 0xc5, 0x35, 0xd5, 0x37, 0xb2, 0xb6,
  0x80, 0xb4, 0x4b, 0x34, 0xcb, 0x30, 0xf6, 0x2c, 0xbe, 0x33, 0xe6, 0x1e,
  0x45, 0x34, 0x6e, 0xb5, 0x71, 0x31, 0xae, 0x36, 0xa8, 0x36, 0x8e, 0xaf,
  0xb9, 0x30, 0x1e, 0xa9, 0xf5, 0x32, 0xa9, 0x35, 0xa3, 0xb1, 0x60, 0xb3,
  0x9b, 0x2c, 0x13, 0xb5, 0x10, 0x2f, 0x9d, 0xb2, 0x70, 0xb4, 0x8e, 0x2f,
  0xbf, 0x34, 0x09, 0x33, 0x90, 0x29, 0x78, 0xb0, 0x7a, 0xb1, 0xcf, 0x32,
  0x8f, 0x34, 0x77, 0x32, 0x0a, 0xaf, 0xe9, 0x2f, 0xe0, 0x30, 0xec, 0xa3,
  0x90, 0x32, 0x18, 0xac, 0x78, 0x36, 0xf1, 0x2c, 0xee, 0xb3, 0xae, 0x34,
  0x83, 0xb0, 0x28, 0xb2, 0x69, 0x29, 0xa7, 0xb2, 0x89, 0x2b, 0x1e, 0xac,
  0x35, 0xae, 0x45, 0xae, 0x70, 0xab, 0x86, 0x2b, 0x78, 0xa8, 0xaf, 0x32,
  0x0a, 0x35, 0x50, 0x34, 0x32, 0xb4, 0xca, 0x1f, 0x7c, 0xb5, 0x9e, 0xb5,
  0xe1, 0xab, 0x09, 0x33, 0xa4, 0x9b, 0x28, 0x31, 0x70, 0x2c, 0x86, 0x33,
  0xf0, 0x34, 0x2a, 0x30, 0x3f, 0xb1, 0x0a, 0xb3, 0x9c, 0x34, 0xb6, 0x34,
  0x71, 0x34, 0x00, 0xaf, 0x86, 0x34, 0xba, 0xb4, 0x2b, 0x26, 0x64, 0x2e,
  0xf8, 0xb4, 0xfe, 0xb3, 0xf0, 0x31, 0xc9, 0xae, 0x42, 0x9f, 0x69, 0x33,
  0xef, 0x34, 0x3d, 0x35, 0x3d, 0x30, 0x29, 0x31, 0x14, 0x31, 0x8c, 0xaf,
  0x14, 0xa5, 0x73, 0xad, 0x11, 0x31, 0x27, 0x35, 0x4b, 0x2e, 0x56, 0x31,
  0x02, 0x31, 0x91, 0x2d, 0x3e, 0x34, 0x02, 0xae, 0xf7, 0xac, 0x11, 0xb0,
  0xb2, 0xf5, 0xff, 0xff, 0x04, 0x00, 0x00, 0x00, 0x40, 0x06, 0x00, 0x00,
  0x17, 0xb2, 0xca, 0xad, 0x9f, 0x2f, 0xee, 0xad, 0x9e, 0xb0, 0xa1, 0xa8,
  0x40, 0x34, 0xbc, 0xb2, 0x61, 0x31, 0xc4, 0xae, 0x49, 0x31, 0xc2, 0x2f,
  0x22, 0x2e, 0xd0, 0xb2, 0xd8, 0x36, 0x2d, 0x34, 0x18, 0xa4, 0x03, 0x35,
  0xf9, 0x30, 0x3f, 0xb3, 0x73, 0x35, 0x37, 0x34, 0x68, 0x2d, 0x2d, 0xb4,
  0xcd, 0x30, 0x7f, 0x30, 0x66, 0xb3, 0xd6, 0xae, 0xa3, 0xb1, 0x94, 0xb4,
  0x40, 0x2d, 0xef, 0x34, 0x93, 0xb4, 0xa5, 0xb1, 0x2a, 0x2f, 0xa1, 0xb3,
  0x2e, 0x34, 0x03, 0xa2, 0xa9, 0x24, 0xb0, 0x32, 0xe3, 0x2a, 0xf6, 0x8f,
  0xa7, 0xab, 0x76, 0x2e, 0x14, 0xb0, 0xc9, 0x25, 0x13, 0xae, 0xe4, 0xa7,
  0xf9, 0xb4, 0xf6, 0x30, 0xbb, 0xb4, 0x1e, 0x2e, 0xd2, 0xb0, 0x9f, 0x32,
  0x50, 0x2f, 0xab, 0xa9, 0x7b, 0xb2, 0x9b, 0xb3, 0xce, 0x32, 0xa1, 0x34,
  0x6b, 0x21, 0x09, 0x0b, 0x3e, 0xb2, 0x7b, 0xb1, 0xb5, 0xac, 0x2d, 0x36,
  0x0e, 0xb4, 0x52, 0xb1, 0x25, 0x34, 0x77, 0xb4, 0x3d, 0x32, 0x47, 0x34,
  0xc4, 0xb4, 0x01, 0x34, 0xa8, 0x26, 0x41, 0x30, 0xa3, 0x34, 0xf7, 0xb3,
  0x5a, 0xb4, 0x6c, 0xac, 0xc4, 0x35, 0xb6, 0x31, 0x3a, 0x24, 0x84, 0xb3,
  0x6b, 0xb0, 0xb3, 0x32, 0xc5, 0xb2, 0x28, 0x34, 0x18, 0xae, 0xe7, 0xb4,
  0x07, 0x35, 0x57, 0x33, 0xc2, 0x34, 0x91, 0xb2, 0x58, 0xb6, 0x1c, 0xb2,
  0x9a, 0xa9, 0x0b, 0x2f, 0x3f, 0xb4, 0x89, 0x31, 0xb3, 0xaa, 0xa3, 0x34,
  0x28, 0xae, 0xee, 0xb1, 0xd8, 0x31, 0x52, 0x34, 0xc9, 0x34, 0x14, 0xaf,
  0xa0, 0xb0, 0x35, 0x33, 0x91, 0x2e, 0x27, 0xb3, 0x4b, 0x2a, 0xae, 0xad,
  0x50, 0xb4, 0xbe, 0xa2, 0xf7, 0xb0, 0x12, 0xb4, 0x48, 0xb4, 0x54, 0xa7,
  0x62, 0x32, 0x62, 0xa7, 0x0c, 0xb4, 0x08, 0x30, 0x8a, 0x31, 0x78, 0xb0,
  0xe9, 0x2b, 0x7b, 0x2c, 0x9b, 0xb0, 0xc2, 0x32, 0x17, 0xab, 0x45, 0x33,
  0x3c, 0x30, 0x15, 0x34, 0x1f, 0xb4, 0x37, 0xad, 0xd5, 0xa9, 0x73, 0xb2,
  0x97, 0x33, 0x5d, 0xa3, 0x8a, 0x2f, 0xf1, 0x21, 0xdd, 0x31, 0x6f, 0x34,
  0xbf, 0x34, 0x33, 0x2a, 0xee, 0x29, 0x25, 0x32, 0x7f, 0xb3, 0x71, 0xb4,
  0xf6, 0x2d, 0x7c, 0x30, 0xad, 0x27, 0x7f, 0x33, 0xd5, 0xad, 0xf3, 0xb3,
  0x8f, 0x34, 0x31, 0xb4, 0x85, 0xb5, 0x58, 0x34, 0x18, 0x2e, 0xd1, 0xb0,
  0x4e, 0xae, 0xfe, 0x32, 0x9a, 0x31, 0x1f, 0xad, 0x2f, 0x34, 0x1e, 0x34,
  0xd4, 0xb4, 0x01, 0x30, 0xe2, 0xb4, 0x2f, 0xb5, 0xca, 0x2c, 0x37, 0xb0,
  0x10, 0x9a, 0xd7, 0x30, 0xd2, 0x2c, 0x82, 0x2f, 0x42, 0xae, 0x02, 0x30,
  0x80, 0xa0, 0x1d, 0xb4, 0xf9, 0xb4, 0x01, 0x2e, 0xb1, 0x2e, 0x93, 0x35,
  0x24, 0x30, 0xe7, 0xad, 0x5f, 0x30, 0xcc, 0x34, 0x99, 0x29, 0x8b, 0xa8,
  0xb4, 0x2d, 0xc1, 0xb1, 0x0a, 0x27, 0xa6, 0x30, 0xb2, 0x31, 0x82, 0x30,
  0xca, 0x2b, 0x61, 0x30, 0x39, 0x30, 0xba, 0x32, 0x93, 0x32, 0x9c, 0xb0,
  0x87, 0x34, 0xe4, 0xad, 0xd3, 0x2e, 0x17, 0x28, 0xd4, 0xa2, 0xd5, 0x34,
  0x80, 0x32, 0xec, 0x30, 0xf7, 0xb0, 0x9c, 0x31, 0x76, 0xb0, 0x57, 0xb0,
  0x36, 0xb2, 0x04, 0xb2, 0xc5, 0x34, 0xce, 0x2d, 0x8d, 0xb4, 0x3d, 0x34,
  0x78, 0xaa, 0xe9, 0xaf, 0xf9, 0xb4, 0x00, 0xaa, 0x8e, 0x32, 0xaa, 0x33,
  0x52, 0x34, 0x06, 0x26, 0xaf, 0x33, 0xac, 0x31, 0xa8, 0xaf, 0x9a, 0xaf,
  0x12, 0x31, 0xc6, 0x98, 0x82, 0x2d, 0x22, 0x32, 0x1e, 0x2c, 0xd3, 0x2d,
  0xeb, 0xb5, 0x15, 0x27, 0xe1, 0x33, 0x95, 0x34, 0x37, 0x2a, 0xde, 0xb4,
  0xc1, 0xaf, 0xc1, 0xa7, 0x53, 0xb4, 0x2b, 0x34, 0x2b, 0x33, 0x36, 0xb1,
  0x83, 0xb4, 0x86, 0x33, 0x15, 0xb4, 0xe6, 0xb3, 0xd8, 0xb1, 0x02, 0x32,
  0xf4, 0x2d, 0xca, 0x2d, 0xbf, 0x36, 0x90, 0x34, 0x07, 0xb5, 0x9b, 0x34,
  0x75, 0xa5, 0xb0, 0x33, 0x10, 0xb0, 0xb0, 0x25, 0x35, 0x34, 0xa4, 0xaa,
  0x04, 0x31, 0x10, 0x34, 0xb2, 0xaa, 0xf6, 0xb3, 0x4c, 0x34, 0xae, 0x30,
  0xd5, 0x33, 0xe8, 0x2d, 0xec, 0xb3, 0x69, 0x24, 0x85, 0xb0, 0x2b, 0x2e,
  0xb4, 0x2c, 0x17, 0x2f, 0x03, 0x34, 0x80, 0xb2, 0x17, 0xb4, 0x31, 0x2e,
  0xf0, 0xb4, 0xd0, 0x33, 0xad, 0xb0, 0x23, 0x2c, 0xa6, 0x26, 0xf8, 0x32,
  0x12, 0xb1, 0x5d, 0xb0, 0xa8, 0x2c, 0x3c, 0xa1, 0x33, 0x34, 0x22, 0xb0,
  0x81, 0x32, 0x59, 0x31, 0x28, 0xb4, 0xc1, 0x32, 0x5e, 0x2b, 0x5d, 0x27,
  0xf9, 0x31, 0x14, 0x32, 0x4e, 0xad, 0xae, 0xb1, 0x30, 0x29, 0xae, 0xb0,
  0x0b, 0x33, 0xa3, 0xad, 0x8c, 0xb1, 0x00, 0x29, 0x74, 0xa6, 0x24, 0x34,
  0x60, 0xb0, 0x29, 0x35, 0x1c, 0x2e, 0x0d, 0xb0, 0xad, 0xb3, 0x6d, 0x32,
  0xbd, 0xa6, 0xee, 0x33, 0x07, 0x35, 0xe5, 0xac, 0x84, 0xb2, 0x55, 0xa3,
  0x77, 0xb3, 0xca, 0xb1, 0x04, 0xb0, 0x68, 0xae, 0x18, 0xb8, 0xd3, 0x34,
  0xb6, 0x34, 0xdd, 0xb4, 0x69, 0x1f, 0x66, 0xae, 0x03, 0x34, 0x5d, 0x33,
  0xe2, 0x34, 0xbb, 0x2e, 0xcb, 0x2d, 0x50, 0x34, 0x6c, 0xac, 0x43, 0x1c,
  0x29, 0xb3, 0x98, 0x24, 0xe3, 0xb5, 0xcd, 0x34, 0xdb, 0x2f, 0x61, 0x23,
  0x5d, 0x36, 0xd6, 0x2e, 0xaa, 0xb1, 0x7f, 0x30, 0x4d, 0xb4, 0x27, 0xa6,
  0x30, 0xa5, 0x29, 0x34, 0x33, 0xb3, 0x02, 0x31, 0x19, 0x31, 0xdc, 0xb0,
  0xc5, 0x30, 0x39, 0xaf, 0x6d, 0xb0, 0x33, 0x33, 0x86, 0x31, 0x52, 0xb5,
  0xb0, 0xab, 0xc6, 0xae, 0x77, 0x34, 0x79, 0x34, 0x21, 0xb1, 0xfd, 0xa5,
  0xbf, 0x35, 0xc9, 0xa5, 0x78, 0x33, 0x34, 0x2d, 0x64, 0xa6, 0x2d, 0xa9,
  0x1c, 0x32, 0x09, 0x2c, 0x22, 0xb4, 0xf9, 0x33, 0xfe, 0x94, 0x7e, 0xb2,
  0xdf, 0xa3, 0xd0, 0x32, 0x19, 0x29, 0xd0, 0x2d, 0x96, 0xb7, 0x10, 0xad,
  0xc3, 0x32, 0x5f, 0x2b, 0x62, 0xb2, 0xba, 0xb1, 0x0d, 0x12, 0x7e, 0x2e,
  0xa9, 0x34, 0x26, 0x33, 0xc5, 0x33, 0x24, 0x32, 0x1f, 0xb4, 0x82, 0x34,
  0x6b, 0xb3, 0xb2, 0xa9, 0x25, 0xae, 0x65, 0x35, 0xce, 0xb0, 0xff, 0xb0,
  0xb7, 0xb4, 0xd7, 0x34, 0xec, 0xb0, 0x71, 0x2c, 0x9b, 0x33, 0x54, 0xb0,
  0x23, 0xb2, 0x03, 0xb3, 0x13, 0x2c, 0xaf, 0xb4, 0xb9, 0x2d, 0xda, 0xae,
  0xea, 0x2c, 0xe1, 0x27, 0xf7, 0x2b, 0x6a, 0x2d, 0xa0, 0xb4, 0x0a, 0xb2,
  0x73, 0x2c, 0x2c, 0xa6, 0x22, 0xb0, 0x31, 0x30, 0xa8, 0x2d, 0xb8, 0x28,
  0x68, 0x33, 0x03, 0x35, 0x35, 0x31, 0x32, 0x32, 0x4d, 0x32, 0xdc, 0xb3,
  0x41, 0xa8, 0x7f, 0xae, 0x10, 0x34, 0x74, 0xb4, 0x6b, 0x1f, 0xc2, 0xb0,
  0x8c, 0x34, 0x3c, 0x28, 0x97, 0xaa, 0x43, 0xaa, 0x39, 0xb6, 0x2e, 0x33,
  0xe0, 0x35, 0x1e, 0x31, 0x16, 0xb2, 0x3c, 0x2c, 0x3c, 0x2e, 0xc1, 0xad,
  0x9b, 0x33, 0x81, 0xb4, 0x22, 0x21, 0x89, 0xad, 0x3b, 0xb2, 0x3d, 0x28,
  0xcf, 0x2f, 0x65, 0xb1, 0x02, 0xb1, 0xf1, 0x2c, 0xe1, 0x2c, 0x89, 0x30,
  0xbf, 0xb0, 0x6e, 0xa9, 0xc0, 0x2d, 0x7e, 0x34, 0x51, 0x34, 0x1a, 0x30,
  0x44, 0x34, 0xb9, 0x34, 0x6e, 0x34, 0x5b, 0xb4, 0xae, 0xb4, 0xca, 0x35,
  0x05, 0xb1, 0xa0, 0xb0, 0x01, 0x33, 0x8b, 0xb2, 0xb5, 0xa6, 0xa4, 0x37,
  0x3f, 0xb4, 0x62, 0xb2, 0xb5, 0xb7, 0x9d, 0xa9, 0x14, 0x36, 0xb8, 0x31,
  0x97, 0x26, 0x64, 0x2d, 0x85, 0xae, 0x89, 0x34, 0x77, 0x34, 0x46, 0x32,
  0x0f, 0x35, 0x07, 0xb5, 0x13, 0x33, 0xce, 0x2c, 0x6d, 0xb2, 0x4e, 0xb4,
  0x47, 0x31, 0x07, 0xa8, 0x4e, 0x97, 0x33, 0x27, 0x02, 0x2f, 0x8f, 0xae,
  0x1a, 0x22, 0xa2, 0xb1, 0x13, 0x31, 0x82, 0xad, 0x0d, 0x2d, 0x57, 0x34,
  0x3e, 0xaa, 0x72, 0x34, 0xcd, 0xb2, 0x14, 0xac, 0xa0, 0x30, 0x71, 0x30,
  0xe6, 0x2d, 0xad, 0x30, 0xaf, 0x24, 0x19, 0xaa, 0xb8, 0x31, 0xff, 0x20,
  0x54, 0xb6, 0x59, 0x2f, 0x41, 0x32, 0xa0, 0x34, 0x3d, 0x33, 0xad, 0xaa,
  0xb3, 0x33, 0x1f, 0xa7, 0x10, 0xb1, 0x31, 0x34, 0x70, 0x31, 0xff, 0x2f,
  0x8d, 0x22, 0x3c, 0x34, 0x1c, 0xa6, 0x78, 0x31, 0x25, 0xb1, 0xfc, 0x35,
  0xa4, 0x13, 0x94, 0x33, 0x5e, 0xb7, 0x40, 0xb4, 0xa8, 0x35, 0x55, 0x31,
  0x7b, 0xa5, 0x02, 0x34, 0x21, 0x31, 0xb9, 0xb3, 0x3a, 0x32, 0x20, 0x2d,
  0xdd, 0xb3, 0xd6, 0x30, 0x24, 0xaf, 0x21, 0x33, 0xff, 0x9d, 0x6d, 0xb4,
  0x32, 0x1f, 0x1e, 0x34, 0x6c, 0x34, 0x16, 0xb4, 0x3d, 0xb1, 0xd5, 0xb3,
  0xcd, 0x35, 0xdc, 0x32, 0x98, 0xb5, 0xd6, 0xb4, 0x55, 0x35, 0x02, 0xa4,
  0xc1, 0x34, 0xa6, 0xae, 0xb7, 0x2c, 0x49, 0x30, 0x32, 0x2d, 0x09, 0xa8,
  0xb3, 0xaf, 0x2c, 0x31, 0x22, 0x32, 0xc7, 0x36, 0x79, 0x2d, 0x5b, 0x34,
  0xa7, 0xaf, 0x30, 0xae, 0xc3, 0xae, 0xac, 0xb2, 0x16, 0x2a, 0x08, 0x32,
  0x83, 0x2d, 0x37, 0x30, 0x28, 0xb4, 0x05, 0xac, 0xdb, 0xaa, 0xc3, 0xb3,
  0x87, 0x2b, 0x6f, 0x33, 0xa0, 0x30, 0x2c, 0x2b, 0xc5, 0xb0, 0xb7, 0xb4,
  0xce, 0x32, 0x8f, 0x2c, 0x5a, 0x26, 0xf4, 0xae, 0x37, 0xb0, 0xee, 0x2f,
  0x15, 0x2c, 0x3e, 0x15, 0xf8, 0xb2, 0xf6, 0x32, 0xf5, 0x2e, 0x61, 0xb4,
  0x5a, 0xb1, 0x91, 0xaa, 0x59, 0x31, 0x74, 0xb4, 0x55, 0x33, 0x8b, 0xb2,
  0x7d, 0x2f, 0x75, 0xb0, 0xdf, 0xb0, 0x13, 0x28, 0xf9, 0xb2, 0xc0, 0xb2,
  0xbd, 0xb2, 0xa4, 0x33, 0xe6, 0x32, 0x68, 0x34, 0x4b, 0x31, 0x4c, 0xaa,
  0x76, 0xa5, 0x25, 0x34, 0x03, 0x2c, 0xb0, 0x2d, 0xfd, 0xb2, 0x08, 0xb3,
  0x4f, 0xb4, 0x90, 0x30, 0x45, 0xa2, 0x08, 0x35, 0x9d, 0xae, 0x61, 0xb0,
  0x77, 0xb2, 0x04, 0xad, 0x3b, 0xb1, 0x70, 0xb1, 0x20, 0xb1, 0xdb, 0xb1,
  0xc2, 0x30, 0xda, 0xad, 0xdd, 0xb0, 0xfb, 0xa6, 0x78, 0x34, 0xe6, 0x33,
  0xa4, 0x32, 0xe2, 0xb3, 0xd4, 0x32, 0xeb, 0xb0, 0xc7, 0xad, 0x5e, 0x35,
  0x09, 0x34, 0x5d, 0x30, 0x7f, 0xb4, 0xc0, 0xaf, 0xa7, 0x36, 0x86, 0xa8,
  0x68, 0xaf, 0xfa, 0x28, 0x0e, 0xb2, 0xbb, 0xac, 0xb8, 0xa8, 0x25, 0x2c,
  0xcd, 0xa8, 0xe9, 0xa3, 0x57, 0xad, 0x0a, 0xb5, 0x9c, 0xb2, 0xb2, 0xa4,
  0x31, 0xb0, 0xac, 0xb4, 0x14, 0x31, 0x04, 0xb4, 0xa2, 0xb2, 0x74, 0x31,
  0xe7, 0x2f, 0x51, 0x31, 0x2b, 0xb3, 0x6e, 0xab, 0x32, 0x2d, 0x10, 0xb3,
  0x94, 0x32, 0xef, 0xb4, 0x41, 0x30, 0x96, 0x30, 0xd2, 0xb3, 0xf4, 0x2e,
  0x56, 0x34, 0x88, 0xb2, 0xe5, 0xb5, 0xf3, 0xb1, 0x37, 0x28, 0x4b, 0xb0,
  0xf5, 0x35, 0x34, 0x34, 0x4f, 0x33, 0xcc, 0xb4, 0x3a, 0x2f, 0xcb, 0xb4,
  0xa9, 0x32, 0xee, 0xad, 0x4b, 0xb4, 0x4b, 0xb4, 0x07, 0xb4, 0x4a, 0x30,
  0x63, 0xb4, 0x72, 0xb4, 0xf5, 0x32, 0x4d, 0xb3, 0xd5, 0x33, 0xb7, 0x25,
  0x1c, 0xb4, 0x8e, 0x2c, 0xe1, 0x36, 0xe3, 0xb4, 0xc7, 0xb4, 0x1a, 0x2b,
  0x4a, 0xa9, 0x26, 0x30, 0x62, 0x36, 0xa0, 0xb4, 0xed, 0x2c, 0x75, 0x23,
  0x7d, 0x2c, 0x74, 0x34, 0x82, 0x2e, 0x51, 0x32, 0x48, 0xb4, 0xa5, 0xac,
  0x14, 0xa4, 0x48, 0x2e, 0x7e, 0xb2, 0x66, 0xb2, 0xad, 0x30, 0x7e, 0xb2,
  0x32, 0xac, 0xf3, 0x33, 0x1d, 0xb6, 0x15, 0x2e, 0x68, 0xb2, 0x47, 0x34,
  0xdc, 0x33, 0x5c, 0x34, 0x44, 0x9f, 0x3c, 0x2c, 0x4b, 0x2d, 0xd2, 0xaa,
  0x19, 0x34, 0x1c, 0xb4, 0x3c, 0x32, 0x3d, 0x32, 0x48, 0xb4, 0x92, 0xaf,
  0x26, 0xab, 0xd1, 0x27, 0x72, 0xb3, 0x87, 0x34, 0xe4, 0xb4, 0x0f, 0xb1,
  0x9a, 0xa9, 0x10, 0x28, 0x5c, 0x34, 0xe0, 0xb3, 0x96, 0x2f, 0x31, 0x35,
  0x0b, 0xae, 0xe0, 0x2e, 0x29, 0x30, 0x78, 0xad, 0x36, 0x2f, 0x21, 0x2c,
  0x54, 0x30, 0xfc, 0x34, 0xf7, 0xae, 0xdd, 0xb1, 0x7c, 0xae, 0x27, 0x1e,
  0xb8, 0x2b, 0x31, 0xb0, 0xfe, 0xfb, 0xff, 0xff, 0x04, 0x00, 0x00, 0x00,
  0xd0, 0x02, 0x00, 0x00, 0x71, 0x31, 0x91, 0x29, 0xf7, 0x35, 0xa7, 0xb1,
  0x2d, 0xad, 0xfe, 0xa8, 0x23, 0xb4, 0x59, 0x36, 0x82, 0x34, 0x39, 0xaf,
  0x0b, 0x32, 0x59, 0xb5, 0x28, 0x32, 0xc2, 0x30, 0x99, 0xb4, 0xcf, 0x35,
  0x4b, 0xb6, 0xb2, 0x34, 0x36, 0xaf, 0x1a, 0x8f, 0x4b, 0xb4, 0x4e, 0x2f,
  0x1d, 0xb1, 0x00, 0x32, 0x8c, 0x35, 0x65, 0x35, 0x33, 0x36, 0x35, 0xb6,
  0x4d, 0x31, 0x2a, 0x2a, 0xfa, 0x35, 0x2b, 0xb6, 0x6b, 0xb5, 0xd0, 0xb4,
  0x59, 0xa8, 0x4f, 0x30, 0xc0, 0xad, 0xa4, 0x2d, 0x4a, 0x32, 0x11, 0x2f,
  0x48, 0xb5, 0xb0, 0xb4, 0xbe, 0x31, 0xb3, 0x35, 0xea, 0x35, 0x40, 0xb0,
  0x77, 0x32, 0x1c, 0xad, 0x15, 0xb4, 0xe5, 0x34, 0x69, 0xb4, 0xe6, 0xaf,
  0x0e, 0xad, 0x98, 0xb2, 0x9c, 0x32, 0xe9, 0x35, 0x6b, 0xa2, 0x06, 0x33,
  0x99, 0x33, 0x48, 0xb4, 0x43, 0xb6, 0x5e, 0xb4, 0xda, 0x34, 0x3e, 0xb4,
  0x94, 0x35, 0x5b, 0xb2, 0x22, 0x2d, 0xa8, 0xb0, 0xb6, 0xb0, 0x9a, 0xaa,
  0x05, 0x26, 0x23, 0xb2, 0xb2, 0xa8, 0x9b, 0xb5, 0x5d, 0x31, 0x4d, 0x2c,
  0x8d, 0x30, 0x75, 0x35, 0xdf, 0xae, 0x3f, 0x32, 0x2b, 0x32, 0xf4, 0xa3,
  0xc0, 0xb2, 0xb7, 0xb5, 0x13, 0x35, 0x25, 0x30, 0x04, 0xb6, 0xff, 0xb5,
  0x57, 0xb6, 0xee, 0xb5, 0x70, 0x34, 0xaa, 0xb2, 0xa4, 0xab, 0x2a, 0x36,
  0xd4, 0xb5, 0x4b, 0xb5, 0x16, 0xb4, 0x62, 0x2c, 0xa9, 0xb5, 0xc6, 0xb3,
  0x1a, 0xa2, 0x6b, 0x34, 0xfa, 0xae, 0xbe, 0x2c, 0x03, 0x36, 0xcd, 0x32,
  0x5a, 0xb2, 0x2d, 0xaa, 0xd9, 0x2c, 0x56, 0x34, 0x0a, 0x30, 0xec, 0xb1,
  0xa8, 0x33, 0x46, 0xb6, 0x07, 0x31, 0x19, 0xaf, 0x11, 0x2e, 0x3f, 0xad,
  0xa5, 0xb4, 0xd1, 0xb5, 0xd2, 0x34, 0x47, 0xb6, 0x99, 0xb4, 0x16, 0xb6,
  0xff, 0xb5, 0x2a, 0xb5, 0xdc, 0x34, 0x82, 0x31, 0x78, 0xb3, 0xfa, 0xb5,
  0x00, 0xaf, 0xfd, 0x2d, 0x45, 0x36, 0x48, 0x35, 0x73, 0x2f, 0x8c, 0x34,
  0xe2, 0x2b, 0x8a, 0xa3, 0xeb, 0x34, 0xec, 0xb5, 0xc8, 0xaf, 0x3a, 0xb3,
  0xdd, 0xb4, 0x47, 0xa8, 0xfe, 0x34, 0x42, 0xb5, 0x88, 0xaa, 0x7f, 0x30,
  0xfe, 0x12, 0x0a, 0x26, 0x41, 0xb6, 0x10, 0x32, 0xc2, 0xb1, 0x22, 0x35,
  0xe7, 0x2c, 0xbc, 0x35, 0x74, 0xa3, 0x29, 0xb3, 0xf4, 0x21, 0x07, 0xb2,
  0x02, 0x35, 0x53, 0xb0, 0x3e, 0x30, 0xc4, 0x22, 0x7c, 0xb3, 0x29, 0xb5,
  0xa6, 0xaf, 0x00, 0x2d, 0x73, 0x28, 0x96, 0x35, 0xb8, 0x9d, 0x0b, 0xb4,
  0x51, 0xb4, 0x0c, 0xb4, 0xcb, 0xb4, 0x38, 0xb2, 0x16, 0xb5, 0x82, 0xa8,
  0x08, 0x9a, 0xc7, 0xae, 0xd3, 0xb0, 0x91, 0x36, 0x13, 0xb6, 0x7e, 0x36,
  0xfa, 0xad, 0x52, 0xb4, 0xb4, 0x35, 0xc4, 0xb2, 0x5c, 0xb5, 0x9f, 0xb4,
  0x58, 0x35, 0xe8, 0x2e, 0x1e, 0xb2, 0x09, 0xa7, 0xe6, 0x2e, 0x6d, 0xa7,
  0x0e, 0x34, 0x5a, 0x35, 0x94, 0x2c, 0xe2, 0xb5, 0x4d, 0x34, 0x95, 0x34,
  0x67, 0xb4, 0x78, 0x32, 0xd0, 0xad, 0x92, 0xac, 0xec, 0x9b, 0x23, 0x36,
  0xdd, 0x31, 0x28, 0x10, 0x98, 0xad, 0x94, 0xad, 0x2d, 0x35, 0x01, 0x2d,
  0xc2, 0xb5, 0x40, 0x33, 0x1d, 0x36, 0x88, 0xaa, 0xae, 0x35, 0x6e, 0xb5,
  0x87, 0xb0, 0xa4, 0xb2, 0x42, 0x32, 0x32, 0x31, 0xe5, 0xb5, 0x23, 0x29,
  0x24, 0x30, 0x4d, 0xb5, 0xfb, 0xb4, 0xfc, 0x2f, 0x16, 0x34, 0x51, 0x9f,
  0x25, 0x36, 0x5e, 0xb3, 0x97, 0x2f, 0x42, 0xae, 0x77, 0xac, 0x9b, 0x33,
  0x75, 0xb5, 0xe7, 0xb2, 0x1c, 0xb1, 0x7c, 0x35, 0x4b, 0xb6, 0x13, 0xb6,
  0xe9, 0xb4, 0x44, 0xb1, 0x54, 0x2f, 0xf5, 0xb5, 0xb3, 0x33, 0x2b, 0xb2,
  0x01, 0x2e, 0x44, 0xb2, 0x4c, 0x2f, 0xac, 0xb6, 0xfa, 0xaf, 0x4d, 0xae,
  0xb5, 0xb4, 0xc0, 0x28, 0x27, 0xb2, 0xe0, 0x26, 0x9b, 0xb0, 0xf7, 0xa5,
  0x08, 0xb5, 0x7b, 0x31, 0xd0, 0x2f, 0x22, 0xac, 0x03, 0x30, 0x63, 0x2c,
  0x3b, 0x31, 0x2d, 0xb6, 0x4b, 0xaa, 0x42, 0xb3, 0x32, 0x24, 0x0c, 0xae,
  0x49, 0xb3, 0x88, 0x31, 0x41, 0xb6, 0x2f, 0xb6, 0x1c, 0x35, 0x39, 0xb1,
  0x5c, 0xa5, 0x0b, 0xb6, 0xa9, 0x29, 0x32, 0xb4, 0xb4, 0x34, 0x6a, 0xb4,
  0xa5, 0xb0, 0xe3, 0xb1, 0x4a, 0xb0, 0xe9, 0xb0, 0x80, 0xaa, 0xcb, 0x1a,
  0xb3, 0xb4, 0x13, 0xad, 0x17, 0xb5, 0x55, 0xb4, 0x98, 0x33, 0x19, 0x2d,
  0x06, 0xb6, 0xd9, 0x9c, 0x4a, 0x31, 0x09, 0x36, 0x0f, 0x35, 0x54, 0x34,
  0xf6, 0x2d, 0x5f, 0x31, 0x28, 0x36, 0x55, 0xb6, 0x85, 0xb4, 0x6b, 0x34,
  0xcf, 0xa6, 0xed, 0x35, 0xd4, 0x2e, 0xa0, 0xb2, 0x4a, 0xb4, 0x1c, 0xaa,
  0xad, 0xb4, 0x7e, 0xb1, 0x03, 0xb6, 0xae, 0x34, 0x3e, 0x2b, 0xcd, 0xa7,
  0x79, 0x31, 0x7f, 0xb5, 0x30, 0xb4, 0xad, 0x36, 0xee, 0xa7, 0x16, 0xb4,
  0x56, 0x36, 0xec, 0x35, 0x4a, 0x31, 0x35, 0x35, 0x9b, 0xaa, 0x40, 0xb3,
  0xba, 0x33, 0xec, 0xb5, 0xa8, 0xb5, 0xa2, 0xb5, 0xb5, 0x34, 0xf1, 0xae,
  0x2f, 0x35, 0xc1, 0x2c, 0xa8, 0x30, 0xf4, 0xad, 0xa3, 0xb4, 0x13, 0xb6,
  0xbb, 0x1d, 0x40, 0xb6, 0x5d, 0xb6, 0xb2, 0x33, 0x52, 0xb6, 0x0c, 0x35,
  0x92, 0x31, 0x62, 0xb6, 0xfc, 0x33, 0x95, 0xb4, 0xe8, 0x32, 0x2f, 0x31,
  0xc5, 0xb1, 0x28, 0xad, 0xda, 0xfe, 0xff, 0xff, 0x04, 0x00, 0x00, 0x00,
  0x28, 0x00, 0x00, 0x00, 0x19, 0x26, 0xa1, 0x9b, 0xc3, 0xa1, 0x6e, 0x30,
  0x84, 0x28, 0x00, 0x00, 0x6e, 0x2c, 0x00, 0x00, 0x40, 0x26, 0xbf, 0xac,
  0xc0, 0x2e, 0xc1, 0x28, 0x5a, 0x9d, 0xea, 0x2a, 0x82, 0x9f, 0x85, 0x2a,
  0xe4, 0xa9, 0x68, 0x2e, 0x90, 0x2a, 0xd6, 0xa9, 0x0e, 0xff, 0xff, 0xff,
  0x04, 0x00, 0x00, 0x00, 0x50, 0x00, 0x00, 0x00, 0x1c, 0xa7, 0x97, 0x2a,
  0x00, 0x00, 0xdf, 0x2c, 0x10, 0x98, 0x14, 0xa5, 0x59, 0xaa, 0xb0, 0x2a,
  0xfc, 0xa5, 0xbc, 0x1c, 0xd7, 0xa9, 0xe2, 0x9e, 0xc0, 0xaa, 0x66, 0x2c,
  0x7e, 0x29, 0xdb, 0x2c, 0x09, 0x30, 0x93, 0x30, 0xdc, 0xac, 0xd7, 0x2b,
  0xf0, 0x2c, 0xfe, 0xa2, 0x03, 0x28, 0x16, 0xaa, 0x66, 0x2d, 0x15, 0xaf,
  0x45, 0x2f, 0xae, 0x32, 0x67, 0x2c, 0x12, 0x25, 0x00, 0x00, 0x2a, 0xae,
  0x52, 0x22, 0x08, 0x32, 0x69, 0xa7, 0xb7, 0x2c, 0xa7, 0xa9, 0x89, 0x2e,
  0x24, 0xa5, 0x68, 0x20, 0x6a, 0xff, 0xff, 0xff, 0x04, 0x00, 0x00, 0x00,
  0x28, 0x00, 0x00, 0x00, 0x55, 0x30, 0x00, 0x00, 0x00, 0x00, 0x00, 0x00,
  0x00, 0x00, 0x5d, 0x30, 0x00, 0x00, 0x00, 0x00, 0x00, 0x00, 0x00, 0x00,
  0x42, 0xab, 0x62, 0x31, 0xa8, 0x29, 0x00, 0x00, 0x3f, 0x31, 0x00, 0x00,
  0x97, 0x30, 0xa7, 0x9d, 0xa2, 0xaf, 0x75, 0xa8, 0x9e, 0xff, 0xff, 0xff,
  0x04, 0x00, 0x00, 0x00, 0x14, 0x00, 0x00, 0x00, 0xeb, 0x27, 0x0e, 0xa9,
  0x1f, 0x2b, 0xbf, 0x28, 0x1b, 0xa2, 0x3a, 0xa2, 0x3d, 0x2b, 0xe3, 0x29,
  0x9a, 0xa8, 0x6c, 0x2a, 0xbe, 0xff, 0xff, 0xff, 0x04, 0x00, 0x00, 0x00,
  0x02, 0x00, 0x00, 0x00, 0x6a, 0x2b, 0x00, 0x00, 0xce, 0xff, 0xff, 0xff,
  0x04, 0x00, 0x00, 0x00, 0x24, 0x00, 0x00, 0x00, 0x00, 0x00, 0x78, 0xb0,
  0x00, 0x00, 0xa6, 0x2c, 0xee, 0xb1, 0x00, 0x00, 0xf3, 0xb0, 0x00, 0x00,
  0x00, 0x00, 0x00, 0x00, 0x54, 0xac, 0x01, 0x2e, 0x15, 0x30, 0x66, 0x30,
  0xfe, 0x30, 0xd0, 0x31, 0x00, 0x00, 0x50, 0x28, 0x00, 0x00, 0x06, 0x00,
  0x08, 0x00, 0x04, 0x00, 0x06, 0x00, 0x00, 0x00, 0x04, 0x00, 0x00, 0x00,
  0x24, 0x00, 0x00, 0x00, 0xbf, 0xad, 0x8a, 0x33, 0xdc, 0xb0, 0x14, 0x2f,
  0xcd, 0x38, 0x46, 0xb8, 0xaf, 0x37, 0x0c, 0xb8, 0x72, 0xb6, 0xfa, 0xac,
  0xe8, 0x28, 0x05, 0x29, 0x9c, 0x29, 0x95, 0x31, 0xe9, 0x36, 0x3c, 0x38,
  0xd4, 0xac, 0xff, 0x31, 0x34, 0xf2, 0xff, 0xff, 0x38, 0xf2, 0xff, 0xff,
  0x0f, 0x00, 0x00, 0x00, 0x4d, 0x4c, 0x49, 0x52, 0x20, 0x43, 0x6f, 0x6e,
  0x76, 0x65, 0x72, 0x74, 0x65, 0x64, 0x2e, 0x00, 0x01, 0x00, 0x00, 0x00,
  0x14, 0x00, 0x00, 0x00, 0x00, 0x00, 0x0e, 0x00, 0x18, 0x00, 0x14, 0x00,
  0x10, 0x00, 0x0c, 0x00, 0x08, 0x00, 0x04, 0x00, 0x0e, 0x00, 0x00, 0x00,
  0x14, 0x00, 0x00, 0x00, 0x1c, 0x00, 0x00, 0x00, 0x24, 0x03, 0x00, 0x00,
  0x28, 0x03, 0x00, 0x00, 0x2c, 0x03, 0x00, 0x00, 0x04, 0x00, 0x00, 0x00,
  0x6d, 0x61, 0x69, 0x6e, 0x00, 0x00, 0x00, 0x00, 0x12, 0x00, 0x00, 0x00,
  0xec, 0x02, 0x00, 0x00, 0xc0, 0x02, 0x00, 0x00, 0xa0, 0x02, 0x00, 0x00,
  0x80, 0x02, 0x00, 0x00, 0x60, 0x02, 0x00, 0x00, 0x40, 0x02, 0x00, 0x00,
  0x20, 0x02, 0x00, 0x00, 0x00, 0x02, 0x00, 0x00, 0xe0, 0x01, 0x00, 0x00,
  0xc0, 0x01, 0x00, 0x00, 0xa0, 0x01, 0x00, 0x00, 0x80, 0x01, 0x00, 0x00,
  0x3c, 0x01, 0x00, 0x00, 0xf0, 0x00, 0x00, 0x00, 0xb4, 0x00, 0x00, 0x00,
  0x78, 0x00, 0x00, 0x00, 0x3c, 0x00, 0x00, 0x00, 0x04, 0x00, 0x00, 0x00,
  0xea, 0xfe, 0xff, 0xff, 0x14, 0x00, 0x00, 0x00, 0x00, 0x00, 0x00, 0x08,
  0x10, 0x00, 0x00, 0x00, 0x14, 0x00, 0x00, 0x00, 0x01, 0x00, 0x00, 0x00,
  0xf0, 0xf2, 0xff, 0xff, 0x01, 0x00, 0x00, 0x00, 0x1e, 0x00, 0x00, 0x00,
  0x03, 0x00, 0x00, 0x00, 0x1d, 0x00, 0x00, 0x00, 0x0d, 0x00, 0x00, 0x00,
  0x16, 0x00, 0x00, 0x00, 0x1e, 0xff, 0xff, 0xff, 0x14, 0x00, 0x00, 0x00,
  0x00, 0x00, 0x00, 0x08, 0x14, 0x00, 0x00, 0x00, 0x18, 0x00, 0x00, 0x00,
  0x01, 0x00, 0x00, 0x00, 0x0e, 0xff, 0xff, 0xff, 0x00, 0x00, 0x00, 0x01,
  0x01, 0x00, 0x00, 0x00, 0x1d, 0x00, 0x00, 0x00, 0x03, 0x00, 0x00, 0x00,
  0x1c, 0x00, 0x00, 0x00, 0x0e, 0x00, 0x00, 0x00, 0x15, 0x00, 0x00, 0x00,
  0x56, 0xff, 0xff, 0xff, 0x14, 0x00, 0x00, 0x00, 0x00, 0x00, 0x00, 0x08,
  0x14, 0x00, 0x00, 0x00, 0x18, 0x00, 0x00, 0x00, 0x01, 0x00, 0x00, 0x00,
  0x46, 0xff, 0xff, 0xff, 0x00, 0x00, 0x00, 0x01, 0x01, 0x00, 0x00, 0x00,
  0x1c, 0x00, 0x00, 0x00, 0x03, 0x00, 0x00, 0x00, 0x1b, 0x00, 0x00, 0x00,
  0x0f, 0x00, 0x00, 0x00, 0x12, 0x00, 0x00, 0x00, 0x8e, 0xff, 0xff, 0xff,
  0x14, 0x00, 0x00, 0x00, 0x00, 0x00, 0x00, 0x08, 0x14, 0x00, 0x00, 0x00,
  0x18, 0x00, 0x00, 0x00, 0x01, 0x00, 0x00, 0x00, 0x7e, 0xff, 0xff, 0xff,
  0x00, 0x00, 0x00, 0x01, 0x01, 0x00, 0x00, 0x00, 0x1b, 0x00, 0x00, 0x00,
  0x03, 0x00, 0x00, 0x00, 0x1a, 0x00, 0x00, 0x00, 0x10, 0x00, 0x00, 0x00,
  0x13, 0x00, 0x00, 0x00, 0xc6, 0xff, 0xff, 0xff, 0x14, 0x00, 0x00, 0x00,
  0x00, 0x00, 0x00, 0x08, 0x14, 0x00, 0x00, 0x00, 0x18, 0x00, 0x00, 0x00,
  0x01, 0x00, 0x00, 0x00, 0xb6, 0xff, 0xff, 0xff, 0x00, 0x00, 0x00, 0x01,
  0x01, 0x00, 0x00, 0x00, 0x1a, 0x00, 0x00, 0x00, 0x03, 0x00, 0x00, 0x00,
  0x19, 0x00, 0x00, 0x00, 0x11, 0x00, 0x00, 0x00, 0x14, 0x00, 0x00, 0x00,
  0x00, 0x00, 0x0e, 0x00, 0x1a, 0x00, 0x14, 0x00, 0x10, 0x00, 0x0c, 0x00,
  0x0b, 0x00, 0x04, 0x00, 0x0e, 0x00, 0x00, 0x00, 0x1c, 0x00, 0x00, 0x00,
  0x00, 0x00, 0x00, 0x08, 0x1c, 0x00, 0x00, 0x00, 0x20, 0x00, 0x00, 0x00,
  0x01, 0x00, 0x00, 0x00, 0x00, 0x00, 0x06, 0x00, 0x08, 0x00, 0x07, 0x00,
  0x06, 0x00, 0x00, 0x00, 0x00, 0x00, 0x00, 0x01, 0x01, 0x00, 0x00, 0x00,
  0x19, 0x00, 0x00, 0x00, 0x03, 0x00, 0x00, 0x00, 0x00, 0x00, 0x00, 0x00,
  0x18, 0x00, 0x00, 0x00, 0x17, 0x00, 0x00, 0x00, 0xca, 0xfe, 0xff, 0xff,
  0x08, 0x00, 0x00, 0x00, 0x0c, 0x00, 0x00, 0x00, 0x01, 0x00, 0x00, 0x00,
  0x18, 0x00, 0x00, 0x00, 0x01, 0x00, 0x00, 0x00, 0x01, 0x00, 0x00, 0x00,
  0xe6, 0xfe, 0xff, 0xff, 0x08, 0x00, 0x00, 0x00, 0x0c, 0x00, 0x00, 0x00,
  0x01, 0x00, 0x00, 0x00, 0x17, 0x00, 0x00, 0x00, 0x01, 0x00, 0x00, 0x00,
  0x02, 0x00, 0x00, 0x00, 0x02, 0xff, 0xff, 0xff, 0x08, 0x00, 0x00, 0x00,
  0x0c, 0x00, 0x00, 0x00, 0x01, 0x00, 0x00, 0x00, 0x16, 0x00, 0x00, 0x00,
  0x01, 0x00, 0x00, 0x00, 0x03, 0x00, 0x00, 0x00, 0x1e, 0xff, 0xff, 0xff,
  0x08, 0x00, 0x00, 0x00, 0x0c, 0x00, 0x00, 0x00, 0x01, 0x00, 0x00, 0x00,
  0x15, 0x00, 0x00, 0x00, 0x01, 0x00, 0x00, 0x00, 0x04, 0x00, 0x00, 0x00,
  0x3a, 0xff, 0xff, 0xff, 0x08, 0x00, 0x00, 0x00, 0x0c, 0x00, 0x00, 0x00,
  0x01, 0x00, 0x00, 0x00, 0x14, 0x00, 0x00, 0x00, 0x01, 0x00, 0x00, 0x00,
  0x05, 0x00, 0x00, 0x00, 0x56, 0xff, 0xff, 0xff, 0x08, 0x00, 0x00, 0x00,
  0x0c, 0x00, 0x00, 0x00, 0x01, 0x00, 0x00, 0x00, 0x13, 0x00, 0x00, 0x00,
  0x01, 0x00, 0x00, 0x00, 0x06, 0x00, 0x00, 0x00, 0x72, 0xff, 0xff, 0xff,
  0x08, 0x00, 0x00, 0x00, 0x0c, 0x00, 0x00, 0x00, 0x01, 0x00, 0x00, 0x00,
  0x12, 0x00, 0x00, 0x00, 0x01, 0x00, 0x00, 0x00, 0x07, 0x00, 0x00, 0x00,
  0x8e, 0xff, 0xff, 0xff, 0x08, 0x00, 0x00, 0x00, 0x0c, 0x00, 0x00, 0x00,
  0x01, 0x00, 0x00, 0x00, 0x11, 0x00, 0x00, 0x00, 0x01, 0x00, 0x00, 0x00,
  0x08, 0x00, 0x00, 0x00, 0xaa, 0xff, 0xff, 0xff, 0x08, 0x00, 0x00, 0x00,
  0x0c, 0x00, 0x00, 0x00, 0x01, 0x00, 0x00, 0x00, 0x10, 0x00, 0x00, 0x00,
  0x01, 0x00, 0x00, 0x00, 0x09, 0x00, 0x00, 0x00, 0xc6, 0xff, 0xff, 0xff,
  0x08, 0x00, 0x00, 0x00, 0x0c, 0x00, 0x00, 0x00, 0x01, 0x00, 0x00, 0x00,
  0x0f, 0x00, 0x00, 0x00, 0x01, 0x00, 0x00, 0x00, 0x0a, 0x00, 0x00, 0x00,
  0xe2, 0xff, 0xff, 0xff, 0x08, 0x00, 0x00, 0x00, 0x0c, 0x00, 0x00, 0x00,
  0x01, 0x00, 0x00, 0x00, 0x0e, 0x00, 0x00, 0x00, 0x01, 0x00, 0x00, 0x00,
  0x0b, 0x00, 0x00, 0x00, 0x00, 0x00, 0x0a, 0x00, 0x0c, 0x00, 0x00, 0x00,
  0x08, 0x00, 0x04, 0x00, 0x0a, 0x00, 0x00, 0x00, 0x08, 0x00, 0x00, 0x00,
  0x0c, 0x00, 0x00, 0x00, 0x01, 0x00, 0x00, 0x00, 0x0d, 0x00, 0x00, 0x00,
  0x01, 0x00, 0x00, 0x00, 0x0c, 0x00, 0x00, 0x00, 0x01, 0x00, 0x00, 0x00,
  0x1e, 0x00, 0x00, 0x00, 0x01, 0x00, 0x00, 0x00, 0x00, 0x00, 0x00, 0x00,
  0x1f, 0x00, 0x00, 0x00, 0x2c, 0x0a, 0x00, 0x00, 0xd0, 0x09, 0x00, 0x00,
  0x78, 0x09, 0x00, 0x00, 0x38, 0x09, 0x00, 0x00, 0xf8, 0x08, 0x00, 0x00,
  0xb8, 0x08, 0x00, 0x00, 0x78, 0x08, 0x00, 0x00, 0x38, 0x08, 0x00, 0x00,
  0xf4, 0x07, 0x00, 0x00, 0xb0, 0x07, 0x00, 0x00, 0x6c, 0x07, 0x00, 0x00,
  0x24, 0x07, 0x00, 0x00, 0xdc, 0x06, 0x00, 0x00, 0x9c, 0x06, 0x00, 0x00,
  0x44, 0x06, 0x00, 0x00, 0x04, 0x06, 0x00, 0x00, 0xc4, 0x05, 0x00, 0x00,
  0x84, 0x05, 0x00, 0x00, 0x48, 0x05, 0x00, 0x00, 0x0c, 0x05, 0x00, 0x00,
  0xd0, 0x04, 0x00, 0x00, 0x74, 0x04, 0x00, 0x00, 0x18, 0x04, 0x00, 0x00,
  0xc0, 0x03, 0x00, 0x00, 0x70, 0x03, 0x00, 0x00, 0xd4, 0x02, 0x00, 0x00,
  0x38, 0x02, 0x00, 0x00, 0x9c, 0x01, 0x00, 0x00, 0x00, 0x01, 0x00, 0x00,
  0x60, 0x00, 0x00, 0x00, 0x04, 0x00, 0x00, 0x00, 0x66, 0xf6, 0xff, 0xff,
  0x00, 0x00, 0x00, 0x01, 0x14, 0x00, 0x00, 0x00, 0x1c, 0x00, 0x00, 0x00,
  0x1c, 0x00, 0x00, 0x00, 0x1f, 0x00, 0x00, 0x00, 0x34, 0x00, 0x00, 0x00,
  0x02, 0x00, 0x00, 0x00, 0xff, 0xff, 0xff, 0xff, 0x01, 0x00, 0x00, 0x00,
  0x50, 0xf6, 0xff, 0xff, 0x1b, 0x00, 0x00, 0x00, 0x53, 0x74, 0x61, 0x74,
  0x65, 0x66, 0x75, 0x6c, 0x50, 0x61, 0x72, 0x74, 0x69, 0x74, 0x69, 0x6f,
  0x6e, 0x65, 0x64, 0x43, 0x61, 0x6c, 0x6c, 0x5f, 0x31, 0x3a, 0x30, 0x00,
  0x02, 0x00, 0x00, 0x00, 0x01, 0x00, 0x00, 0x00, 0x01, 0x00, 0x00, 0x00,
  0xbe, 0xf6, 0xff, 0xff, 0x00, 0x00, 0x00, 0x01, 0x14, 0x00, 0x00, 0x00,
  0x1c, 0x00, 0x00, 0x00, 0x1c, 0x00, 0x00, 0x00, 0x1e, 0x00, 0x00, 0x00,
  0x78, 0x00, 0x00, 0x00, 0x02, 0x00, 0x00, 0x00, 0xff, 0xff, 0xff, 0xff,
  0x0a, 0x00, 0x00, 0x00, 0xa8, 0xf6, 0xff, 0xff, 0x5d, 0x00, 0x00, 0x00,
  0x73, 0x65, 0x71, 0x75, 0x65, 0x6e, 0x74, 0x69, 0x61, 0x6c, 0x5f, 0x31,
  0x5f, 0x31, 0x2f, 0x64, 0x65, 0x6e, 0x73, 0x65, 0x5f, 0x31, 0x30, 0x5f,
  0x31, 0x2f, 0x4d, 0x61, 0x74, 0x4d, 0x75, 0x6c, 0x3b, 0x73, 0x65, 0x71,
  0x75, 0x65, 0x6e, 0x74, 0x69, 0x61, 0x6c, 0x5f, 0x31, 0x5f, 0x31, 0x2f,
  0x64, 0x65, 0x6e, 0x73, 0x65, 0x5f, 0x31, 0x30, 0x5f, 0x31, 0x2f, 0x52,
  0x65, 0x6c, 0x75, 0x3b, 0x73, 0x65, 0x71, 0x75, 0x65, 0x6e, 0x74, 0x69,
  0x61, 0x6c, 0x5f, 0x31, 0x5f, 0x31, 0x2f, 0x64, 0x65, 0x6e, 0x73, 0x65,
  0x5f, 0x31, 0x30, 0x5f, 0x31, 0x2f, 0x41, 0x64, 0x64, 0x00, 0x00, 0x00,
  0x02, 0x00, 0x00, 0x00, 0x01, 0x00, 0x00, 0x00, 0x0a, 0x00, 0x00, 0x00,
  0x5a, 0xf7, 0xff, 0xff, 0x00, 0x00, 0x00, 0x01, 0x14, 0x00, 0x00, 0x00,
  0x1c, 0x00, 0x00, 0x00, 0x1c, 0x00, 0x00, 0x00, 0x1d, 0x00, 0x00, 0x00,
  0x74, 0x00, 0x00, 0x00, 0x02, 0x00, 0x00, 0x00, 0xff, 0xff, 0xff, 0xff,
  0x14, 0x00, 0x00, 0x00, 0x44, 0xf7, 0xff, 0xff, 0x5a, 0x00, 0x00, 0x00,
  0x73, 0x65, 0x71, 0x75, 0x65, 0x6e, 0x74, 0x69, 0x61, 0x6c, 0x5f, 0x31,
  0x5f, 0x31, 0x2f, 0x64, 0x65, 0x6e, 0x73, 0x65, 0x5f, 0x39, 0x5f, 0x31,
  0x2f, 0x4d, 0x61, 0x74, 0x4d, 0x75, 0x6c, 0x3b, 0x73, 0x65, 0x71, 0x75,
  0x65, 0x6e, 0x74, 0x69, 0x61, 0x6c, 0x5f, 0x31, 0x5f, 0x31, 0x2f, 0x64,
  0x65, 0x6e, 0x73, 0x65, 0x5f, 0x39, 0x5f, 0x31, 0x2f, 0x52, 0x65, 0x6c,
  0x75, 0x3b, 0x73, 0x65, 0x71, 0x75, 0x65, 0x6e, 0x74, 0x69, 0x61, 0x6c,
  0x5f, 0x31, 0x5f, 0x31, 0x2f, 0x64, 0x65, 0x6e, 0x73, 0x65, 0x5f, 0x39,
  0x5f, 0x31, 0x2f, 0x41, 0x64, 0x64, 0x00, 0x00, 0x02, 0x00, 0x00, 0x00,
  0x01, 0x00, 0x00, 0x00, 0x14, 0x00, 0x00, 0x00, 0xf2, 0xf7, 0xff, 0xff,
  0x00, 0x00, 0x00, 0x01, 0x14, 0x00, 0x00, 0x00, 0x1c, 0x00, 0x00, 0x00,
  0x1c, 0x00, 0x00, 0x00, 0x1c, 0x00, 0x00, 0x00, 0x74, 0x00, 0x00, 0x00,
  0x02, 0x00, 0x00, 0x00, 0xff, 0xff, 0xff, 0xff, 0x28, 0x00, 0x00, 0x00,
  0xdc, 0xf7, 0xff, 0xff, 0x5a, 0x00, 0x00, 0x00, 0x73, 0x65, 0x71, 0x75,
  0x65, 0x6e, 0x74, 0x69, 0x61, 0x6c, 0x5f, 0x31, 0x5f, 0x31, 0x2f, 0x64,
  0x65, 0x6e, 0x73, 0x65, 0x5f, 0x38, 0x5f, 0x31, 0x2f, 0x4d, 0x61, 0x74,
  0x4d, 0x75, 0x6c, 0x3b, 0x73, 0x65, 0x71, 0x75, 0x65, 0x6e, 0x74, 0x69,
  0x61, 0x6c, 0x5f, 0x31, 0x5f, 0x31, 0x2f, 0x64, 0x65, 0x6e, 0x73, 0x65,
  0x5f, 0x38, 0x5f, 0x31, 0x2f, 0x52, 0x65, 0x6c, 0x75, 0x3b, 0x73, 0x65,
  0x71, 0x75, 0x65, 0x6e, 0x74, 0x69, 0x61, 0x6c, 0x5f, 0x31, 0x5f, 0x31,
  0x2f, 0x64, 0x65, 0x6e, 0x73, 0x65, 0x5f, 0x38, 0x5f, 0x31, 0x2f, 0x41,
  0x64, 0x64, 0x00, 0x00, 0x02, 0x00, 0x00, 0x00, 0x01, 0x00, 0x00, 0x00,
  0x28, 0x00, 0x00, 0x00, 0x8a, 0xf8, 0xff, 0xff, 0x00, 0x00, 0x00, 0x01,
  0x14, 0x00, 0x00, 0x00, 0x1c, 0x00, 0x00, 0x00, 0x1c, 0x00, 0x00, 0x00,
  0x1b, 0x00, 0x00, 0x00, 0x74, 0x00, 0x00, 0x00, 0x02, 0x00, 0x00, 0x00,
  0xff, 0xff, 0xff, 0xff, 0x14, 0x00, 0x00, 0x00, 0x74, 0xf8, 0xff, 0xff,
  0x5a, 0x00, 0x00, 0x00, 0x73, 0x65, 0x71, 0x75, 0x65, 0x6e, 0x74, 0x69,
  0x61, 0x6c, 0x5f, 0x31, 0x5f, 0x31, 0x2f, 0x64, 0x65, 0x6e, 0x73, 0x65,
  0x5f, 0x37, 0x5f, 0x31, 0x2f, 0x4d, 0x61, 0x74, 0x4d, 0x75, 0x6c, 0x3b,
  0x73, 0x65, 0x71, 0x75, 0x65, 0x6e, 0x74, 0x69, 0x61, 0x6c, 0x5f, 0x31,
  0x5f, 0x31, 0x2f, 0x64, 0x65, 0x6e, 0x73, 0x65, 0x5f, 0x37, 0x5f, 0x31,
  0x2f, 0x52, 0x65, 0x6c, 0x75, 0x3b, 0x73, 0x65, 0x71, 0x75, 0x65, 0x6e,
  0x74, 0x69, 0x61, 0x6c, 0x5f, 0x31, 0x5f, 0x31, 0x2f, 0x64, 0x65, 0x6e,
  0x73, 0x65, 0x5f, 0x37, 0x5f, 0x31, 0x2f, 0x41, 0x64, 0x64, 0x00, 0x00,
  0x02, 0x00, 0x00, 0x00, 0x01, 0x00, 0x00, 0x00, 0x14, 0x00, 0x00, 0x00,
  0x22, 0xf9, 0xff, 0xff, 0x00, 0x00, 0x00, 0x01, 0x14, 0x00, 0x00, 0x00,
  0x1c, 0x00, 0x00, 0x00, 0x1c, 0x00, 0x00, 0x00, 0x1a, 0x00, 0x00, 0x00,
  0x74, 0x00, 0x00, 0x00, 0x02, 0x00, 0x00, 0x00, 0xff, 0xff, 0xff, 0xff,
  0x12, 0x00, 0x00, 0x00, 0x0c, 0xf9, 0xff, 0xff, 0x5a, 0x00, 0x00, 0x00,
  0x73, 0x65, 0x71, 0x75, 0x65, 0x6e, 0x74, 0x69, 0x61, 0x6c, 0x5f, 0x31,
  0x5f, 0x31, 0x2f, 0x64, 0x65, 0x6e, 0x73, 0x65, 0x5f, 0x36, 0x5f, 0x31,
  0x2f, 0x4d, 0x61, 0x74, 0x4d, 0x75, 0x6c, 0x3b, 0x73, 0x65, 0x71, 0x75,
  0x65, 0x6e, 0x74, 0x69, 0x61, 0x6c, 0x5f, 0x31, 0x5f, 0x31, 0x2f, 0x64,
  0x65, 0x6e, 0x73, 0x65, 0x5f, 0x36, 0x5f, 0x31, 0x2f, 0x52, 0x65, 0x6c,
  0x75, 0x3b, 0x73, 0x65, 0x71, 0x75, 0x65, 0x6e, 0x74, 0x69, 0x61, 0x6c,
  0x5f, 0x31, 0x5f, 0x31, 0x2f, 0x64, 0x65, 0x6e, 0x73, 0x65, 0x5f, 0x36,
  0x5f, 0x31, 0x2f, 0x41, 0x64, 0x64, 0x00, 0x00, 0x02, 0x00, 0x00, 0x00,
  0x01, 0x00, 0x00, 0x00, 0x12, 0x00, 0x00, 0x00, 0x16, 0xfd, 0xff, 0xff,
  0x00, 0x00, 0x00, 0x01, 0x10, 0x00, 0x00, 0x00, 0x10, 0x00, 0x00, 0x00,
  0x19, 0x00, 0x00, 0x00, 0x2c, 0x00, 0x00, 0x00, 0x94, 0xf9, 0xff, 0xff,
  0x1f, 0x00, 0x00, 0x00, 0x73, 0x65, 0x71, 0x75, 0x65, 0x6e, 0x74, 0x69,
  0x61, 0x6c, 0x5f, 0x31, 0x5f, 0x31, 0x2f, 0x64, 0x65, 0x6e, 0x73, 0x65,
  0x5f, 0x36, 0x5f, 0x31, 0x2f, 0x4d, 0x61, 0x74, 0x4d, 0x75, 0x6c, 0x00,
  0x02, 0x00, 0x00, 0x00, 0x12, 0x00, 0x00, 0x00, 0x01, 0x00, 0x00, 0x00,
  0x62, 0xfd, 0xff, 0xff, 0x00, 0x00, 0x00, 0x01, 0x10, 0x00, 0x00, 0x00,
  0x10, 0x00, 0x00, 0x00, 0x18, 0x00, 0x00, 0x00, 0x38, 0x00, 0x00, 0x00,
  0xe0, 0xf9, 0xff, 0xff, 0x2b, 0x00, 0x00, 0x00, 0x73, 0x65, 0x71, 0x75,
  0x65, 0x6e, 0x74, 0x69, 0x61, 0x6c, 0x5f, 0x31, 0x5f, 0x31, 0x2f, 0x64,
  0x65, 0x6e, 0x73, 0x65, 0x5f, 0x36, 0x5f, 0x31, 0x2f, 0x41, 0x64, 0x64,
  0x2f, 0x52, 0x65, 0x61, 0x64, 0x56, 0x61, 0x72, 0x69, 0x61, 0x62, 0x6c,
  0x65, 0x4f, 0x70, 0x00, 0x01, 0x00, 0x00, 0x00, 0x12, 0x00, 0x00, 0x00,
  0xb6, 0xfd, 0xff, 0xff, 0x00, 0x00, 0x00, 0x01, 0x10, 0x00, 0x00, 0x00,
  0x10, 0x00, 0x00, 0x00, 0x17, 0x00, 0x00, 0x00, 0x3c, 0x00, 0x00, 0x00,
  0x34, 0xfa, 0xff, 0xff, 0x2c, 0x00, 0x00, 0x00, 0x73, 0x65, 0x71, 0x75,
  0x65, 0x6e, 0x74, 0x69, 0x61, 0x6c, 0x5f, 0x31, 0x5f, 0x31, 0x2f, 0x64,
  0x65, 0x6e, 0x73, 0x65, 0x5f, 0x31, 0x31, 0x5f, 0x31, 0x2f, 0x41, 0x64,
  0x64, 0x2f, 0x52, 0x65, 0x61, 0x64, 0x56, 0x61, 0x72, 0x69, 0x61, 0x62,
  0x6c, 0x65, 0x4f, 0x70, 0x00, 0x00, 0x00, 0x00, 0x01, 0x00, 0x00, 0x00,
  0x01, 0x00, 0x00, 0x00, 0x0e, 0xfe, 0xff, 0xff, 0x00, 0x00, 0x00, 0x01,
  0x10, 0x00, 0x00, 0x00, 0x10, 0x00, 0x00, 0x00, 0x16, 0x00, 0x00, 0x00,
  0x3c, 0x00, 0x00, 0x00, 0x8c, 0xfa, 0xff, 0xff, 0x2c, 0x00, 0x00, 0x00,
  0x73, 0x65, 0x71, 0x75, 0x65, 0x6e, 0x74, 0x69, 0x61, 0x6c, 0x5f, 0x31,
  0x5f, 0x31, 0x2f, 0x64, 0x65, 0x6e, 0x73, 0x65, 0x5f, 0x31, 0x30, 0x5f,
  0x31, 0x2f, 0x41, 0x64, 0x64, 0x2f, 0x52, 0x65, 0x61, 0x64, 0x56, 0x61,
  0x72, 0x69, 0x61, 0x62, 0x6c, 0x65, 0x4f, 0x70, 0x00, 0x00, 0x00, 0x00,
  0x01, 0x00, 0x00, 0x00, 0x0a, 0x00, 0x00, 0x00, 0x66, 0xfe, 0xff, 0xff,
  0x00, 0x00, 0x00, 0x01, 0x10, 0x00, 0x00, 0x00, 0x10, 0x00, 0x00, 0x00,
  0x15, 0x00, 0x00, 0x00, 0x1c, 0x00, 0x00, 0x00, 0xe4, 0xfa, 0xff, 0xff,
  0x0f, 0x00, 0x00, 0x00, 0x74, 0x66, 0x6c, 0x2e, 0x64, 0x65, 0x71, 0x75,
  0x61, 0x6e, 0x74, 0x69, 0x7a, 0x65, 0x37, 0x00, 0x01, 0x00, 0x00, 0x00,
  0x14, 0x00, 0x00, 0x00, 0x9e, 0xfe, 0xff, 0xff, 0x00, 0x00, 0x00, 0x01,
  0x10, 0x00, 0x00, 0x00, 0x10, 0x00, 0x00, 0x00, 0x14, 0x00, 0x00, 0x00,
  0x1c, 0x00, 0x00, 0x00, 0x1c, 0xfb, 0xff, 0xff, 0x0f, 0x00, 0x00, 0x00,
  0x74, 0x66, 0x6c, 0x2e, 0x64, 0x65, 0x71, 0x75, 0x61, 0x6e, 0x74, 0x69,
  0x7a, 0x65, 0x36, 0x00, 0x01, 0x00, 0x00, 0x00, 0x28, 0x00, 0x00, 0x00,
  0xd6, 0xfe, 0xff, 0xff, 0x00, 0x00, 0x00, 0x01, 0x10, 0x00, 0x00, 0x00,
  0x10, 0x00, 0x00, 0x00, 0x13, 0x00, 0x00, 0x00, 0x1c, 0x00, 0x00, 0x00,
  0x54, 0xfb, 0xff, 0xff, 0x0f, 0x00, 0x00, 0x00, 0x74, 0x66, 0x6c, 0x2e,
  0x64, 0x65, 0x71, 0x75, 0x61, 0x6e, 0x74, 0x69, 0x7a, 0x65, 0x35, 0x00,
  0x01, 0x00, 0x00, 0x00, 0x14, 0x00, 0x00, 0x00, 0x0e, 0xff, 0xff, 0xff,
  0x00, 0x00, 0x00, 0x01, 0x10, 0x00, 0x00, 0x00, 0x10, 0x00, 0x00, 0x00,
  0x12, 0x00, 0x00, 0x00, 0x1c, 0x00, 0x00, 0x00, 0x8c, 0xfb, 0xff, 0xff,
  0x0f, 0x00, 0x00, 0x00, 0x74, 0x66, 0x6c, 0x2e, 0x64, 0x65, 0x71, 0x75,
  0x61, 0x6e, 0x74, 0x69, 0x7a, 0x65, 0x34, 0x00, 0x02, 0x00, 0x00, 0x00,
  0x14, 0x00, 0x00, 0x00, 0x12, 0x00, 0x00, 0x00, 0x4a, 0xff, 0xff, 0xff,
  0x00, 0x00, 0x00, 0x01, 0x10, 0x00, 0x00, 0x00, 0x10, 0x00, 0x00, 0x00,
  0x11, 0x00, 0x00, 0x00, 0x1c, 0x00, 0x00, 0x00, 0xc8, 0xfb, 0xff, 0xff,
  0x0f, 0x00, 0x00, 0x00, 0x74, 0x66, 0x6c, 0x2e, 0x64, 0x65, 0x71, 0x75,
  0x61, 0x6e, 0x74, 0x69, 0x7a, 0x65, 0x33, 0x00, 0x02, 0x00, 0x00, 0x00,
  0x28, 0x00, 0x00, 0x00, 0x14, 0x00, 0x00, 0x00, 0x86, 0xff, 0xff, 0xff,
  0x00, 0x00, 0x00, 0x01, 0x10, 0x00, 0x00, 0x00, 0x10, 0x00, 0x00, 0x00,
  0x10, 0x00, 0x00, 0x00, 0x1c, 0x00, 0x00, 0x00, 0x04, 0xfc, 0xff, 0xff,
  0x0f, 0x00, 0x00, 0x00, 0x74, 0x66, 0x6c, 0x2e, 0x64, 0x65, 0x71, 0x75,
  0x61, 0x6e, 0x74, 0x69, 0x7a, 0x65, 0x32, 0x00, 0x02, 0x00, 0x00, 0x00,
  0x14, 0x00, 0x00, 0x00, 0x28, 0x00, 0x00, 0x00, 0xc2, 0xff, 0xff, 0xff,
  0x00, 0x00, 0x00, 0x01, 0x10, 0x00, 0x00, 0x00, 0x10, 0x00, 0x00, 0x00,
  0x0f, 0x00, 0x00, 0x00, 0x1c, 0x00, 0x00, 0x00, 0x40, 0xfc, 0xff, 0xff,
  0x0f, 0x00, 0x00, 0x00, 0x74, 0x66, 0x6c, 0x2e, 0x64, 0x65, 0x71, 0x75,
  0x61, 0x6e, 0x74, 0x69, 0x7a, 0x65, 0x31, 0x00, 0x02, 0x00, 0x00, 0x00,
  0x0a, 0x00, 0x00, 0x00, 0x14, 0x00, 0x00, 0x00, 0x00, 0x00, 0x16, 0x00,
  0x18, 0x00, 0x14, 0x00, 0x00, 0x00, 0x10, 0x00, 0x0c, 0x00, 0x08, 0x00,
  0x00, 0x00, 0x00, 0x00, 0x00, 0x00, 0x07, 0x00, 0x16, 0x00, 0x00, 0x00,
  0x00, 0x00, 0x00, 0x01, 0x10, 0x00, 0x00, 0x00, 0x10, 0x00, 0x00, 0x00,
  0x0e, 0x00, 0x00, 0x00, 0x1c, 0x00, 0x00, 0x00, 0x94, 0xfc, 0xff, 0xff,
  0x0e, 0x00, 0x00, 0x00, 0x74, 0x66, 0x6c, 0x2e, 0x64, 0x65, 0x71, 0x75,
  0x61, 0x6e, 0x74, 0x69, 0x7a, 0x65, 0x00, 0x00, 0x02, 0x00, 0x00, 0x00,
  0x01, 0x00, 0x00, 0x00, 0x0a, 0x00, 0x00, 0x00, 0x4e, 0xfd, 0xff, 0xff,
  0x00, 0x00, 0x00, 0x01, 0x14, 0x00, 0x00, 0x00, 0x14, 0x00, 0x00, 0x00,
  0x0d, 0x00, 0x00, 0x00, 0x00, 0x00, 0x00, 0x01, 0x20, 0x00, 0x00, 0x00,
  0xd4, 0xfc, 0xff, 0xff, 0x10, 0x00, 0x00, 0x00, 0x61, 0x72, 0x69, 0x74,
  0x68, 0x2e, 0x63, 0x6f, 0x6e, 0x73, 0x74, 0x61, 0x6e, 0x74, 0x31, 0x31,
  0x00, 0x00, 0x00, 0x00, 0x02, 0x00, 0x00, 0x00, 0x01, 0x00, 0x00, 0x00,
  0x0a, 0x00, 0x00, 0x00, 0x92, 0xfd, 0xff, 0xff, 0x00, 0x00, 0x00, 0x01,
  0x14, 0x00, 0x00, 0x00, 0x14, 0x00, 0x00, 0x00, 0x0c, 0x00, 0x00, 0x00,
  0x00, 0x00, 0x00, 0x01, 0x20, 0x00, 0x00, 0x00, 0x18, 0xfd, 0xff, 0xff,
  0x10, 0x00, 0x00, 0x00, 0x61, 0x72, 0x69, 0x74, 0x68, 0x2e, 0x63, 0x6f,
  0x6e, 0x73, 0x74, 0x61, 0x6e, 0x74, 0x31, 0x30, 0x00, 0x00, 0x00, 0x00,
  0x02, 0x00, 0x00, 0x00, 0x0a, 0x00, 0x00, 0x00, 0x14, 0x00, 0x00, 0x00,
  0xd6, 0xfd, 0xff, 0xff, 0x00, 0x00, 0x00, 0x01, 0x14, 0x00, 0x00, 0x00,
  0x14, 0x00, 0x00, 0x00, 0x0b, 0x00, 0x00, 0x00, 0x00, 0x00, 0x00, 0x01,
  0x1c, 0x00, 0x00, 0x00, 0x5c, 0xfd, 0xff, 0xff, 0x0f, 0x00, 0x00, 0x00,
  0x61, 0x72, 0x69, 0x74, 0x68, 0x2e, 0x63, 0x6f, 0x6e, 0x73, 0x74, 0x61,
  0x6e, 0x74, 0x39, 0x00, 0x02, 0x00, 0x00, 0x00, 0x14, 0x00, 0x00, 0x00,
  0x28, 0x00, 0x00, 0x00, 0x16, 0xfe, 0xff, 0xff, 0x00, 0x00, 0x00, 0x01,
  0x14, 0x00, 0x00, 0x00, 0x14, 0x00, 0x00, 0x00, 0x0a, 0x00, 0x00, 0x00,
  0x00, 0x00, 0x00, 0x01, 0x1c, 0x00, 0x00, 0x00, 0x9c, 0xfd, 0xff, 0xff,
  0x0f, 0x00, 0x00, 0x00, 0x61, 0x72, 0x69, 0x74, 0x68, 0x2e, 0x63, 0x6f,
  0x6e, 0x73, 0x74, 0x61, 0x6e, 0x74, 0x38, 0x00, 0x02, 0x00, 0x00, 0x00,
  0x28, 0x00, 0x00, 0x00, 0x14, 0x00, 0x00, 0x00, 0x56, 0xfe, 0xff, 0xff,
  0x00, 0x00, 0x00, 0x01, 0x14, 0x00, 0x00, 0x00, 0x14, 0x00, 0x00, 0x00,
  0x09, 0x00, 0x00, 0x00, 0x00, 0x00, 0x00, 0x01, 0x1c, 0x00, 0x00, 0x00,
  0xdc, 0xfd, 0xff, 0xff, 0x0f, 0x00, 0x00, 0x00, 0x61, 0x72, 0x69, 0x74,
  0x68, 0x2e, 0x63, 0x6f, 0x6e, 0x73, 0x74, 0x61, 0x6e, 0x74, 0x37, 0x00,
  0x02, 0x00, 0x00, 0x00, 0x14, 0x00, 0x00, 0x00, 0x12, 0x00, 0x00, 0x00,
  0x96, 0xfe, 0xff, 0xff, 0x00, 0x00, 0x00, 0x01, 0x14, 0x00, 0x00, 0x00,
  0x14, 0x00, 0x00, 0x00, 0x08, 0x00, 0x00, 0x00, 0x00, 0x00, 0x00, 0x01,
  0x1c, 0x00, 0x00, 0x00, 0x1c, 0xfe, 0xff, 0xff, 0x0f, 0x00, 0x00, 0x00,
  0x61, 0x72, 0x69, 0x74, 0x68, 0x2e, 0x63, 0x6f, 0x6e, 0x73, 0x74, 0x61,
  0x6e, 0x74, 0x36, 0x00, 0x01, 0x00, 0x00, 0x00, 0x14, 0x00, 0x00, 0x00,
  0xd2, 0xfe, 0xff, 0xff, 0x00, 0x00, 0x00, 0x01, 0x14, 0x00, 0x00, 0x00,
  0x14, 0x00, 0x00, 0x00, 0x07, 0x00, 0x00, 0x00, 0x00, 0x00, 0x00, 0x01,
  0x1c, 0x00, 0x00, 0x00, 0x58, 0xfe, 0xff, 0xff, 0x0f, 0x00, 0x00, 0x00,
  0x61, 0x72, 0x69, 0x74, 0x68, 0x2e, 0x63, 0x6f, 0x6e, 0x73, 0x74, 0x61,
  0x6e, 0x74, 0x35, 0x00, 0x01, 0x00, 0x00, 0x00, 0x28, 0x00, 0x00, 0x00,
  0x0e, 0xff, 0xff, 0xff, 0x00, 0x00, 0x00, 0x01, 0x14, 0x00, 0x00, 0x00,
  0x14, 0x00, 0x00, 0x00, 0x06, 0x00, 0x00, 0x00, 0x00, 0x00, 0x00, 0x01,
  0x1c, 0x00, 0x00, 0x00, 0x94, 0xfe, 0xff, 0xff, 0x0f, 0x00, 0x00, 0x00,
  0x61, 0x72, 0x69, 0x74, 0x68, 0x2e, 0x63, 0x6f, 0x6e, 0x73, 0x74, 0x61,
  0x6e, 0x74, 0x34, 0x00, 0x01, 0x00, 0x00, 0x00, 0x14, 0x00, 0x00, 0x00,
  0x4a, 0xff, 0xff, 0xff, 0x00, 0x00, 0x00, 0x01, 0x14, 0x00, 0x00, 0x00,
  0x14, 0x00, 0x00, 0x00, 0x05, 0x00, 0x00, 0x00, 0x00, 0x00, 0x00, 0x01,
  0x1c, 0x00, 0x00, 0x00, 0xd0, 0xfe, 0xff, 0xff, 0x0f, 0x00, 0x00, 0x00,
  0x61, 0x72, 0x69, 0x74, 0x68, 0x2e, 0x63, 0x6f, 0x6e, 0x73, 0x74, 0x61,
  0x6e, 0x74, 0x33, 0x00, 0x01, 0x00, 0x00, 0x00, 0x0a, 0x00, 0x00, 0x00,
  0x86, 0xff, 0xff, 0xff, 0x00, 0x00, 0x00, 0x01, 0x14, 0x00, 0x00, 0x00,
  0x14, 0x00, 0x00, 0x00, 0x04, 0x00, 0x00, 0x00, 0x00, 0x00, 0x00, 0x01,
  0x1c, 0x00, 0x00, 0x00, 0x0c, 0xff, 0xff, 0xff, 0x0f, 0x00, 0x00, 0x00,
  0x61, 0x72, 0x69, 0x74, 0x68, 0x2e, 0x63, 0x6f, 0x6e, 0x73, 0x74, 0x61,
  0x6e, 0x74, 0x32, 0x00, 0x01, 0x00, 0x00, 0x00, 0x01, 0x00, 0x00, 0x00,
  0xc2, 0xff, 0xff, 0xff, 0x00, 0x00, 0x00, 0x01, 0x14, 0x00, 0x00, 0x00,
  0x14, 0x00, 0x00, 0x00, 0x03, 0x00, 0x00, 0x00, 0x00, 0x00, 0x00, 0x01,
  0x1c, 0x00, 0x00, 0x00, 0x48, 0xff, 0xff, 0xff, 0x0f, 0x00, 0x00, 0x00,
  0x61, 0x72, 0x69, 0x74, 0x68, 0x2e, 0x63, 0x6f, 0x6e, 0x73, 0x74, 0x61,
  0x6e, 0x74, 0x31, 0x00, 0x01, 0x00, 0x00, 0x00, 0x12, 0x00, 0x00, 0x00,
  0x00, 0x00, 0x16, 0x00, 0x1c, 0x00, 0x18, 0x00, 0x17, 0x00, 0x10, 0x00,
  0x0c, 0x00, 0x08, 0x00, 0x00, 0x00, 0x00, 0x00, 0x00, 0x00, 0x07, 0x00,
  0x16, 0x00, 0x00, 0x00, 0x00, 0x00, 0x00, 0x01, 0x14, 0x00, 0x00, 0x00,
  0x14, 0x00, 0x00, 0x00, 0x02, 0x00, 0x00, 0x00, 0x00, 0x00, 0x00, 0x01,
  0x1c, 0x00, 0x00, 0x00, 0x9c, 0xff, 0xff, 0xff, 0x0e, 0x00, 0x00, 0x00,
  0x61, 0x72, 0x69, 0x74, 0x68, 0x2e, 0x63, 0x6f, 0x6e, 0x73, 0x74, 0x61,
  0x6e, 0x74, 0x00, 0x00, 0x02, 0x00, 0x00, 0x00, 0x12, 0x00, 0x00, 0x00,
  0x01, 0x00, 0x00, 0x00, 0x00, 0x00, 0x16, 0x00, 0x1c, 0x00, 0x18, 0x00,
  0x00, 0x00, 0x14, 0x00, 0x10, 0x00, 0x0c, 0x00, 0x00, 0x00, 0x00, 0x00,
  0x08, 0x00, 0x07, 0x00, 0x16, 0x00, 0x00, 0x00, 0x00, 0x00, 0x00, 0x01,
  0x14, 0x00, 0x00, 0x00, 0x20, 0x00, 0x00, 0x00, 0x20, 0x00, 0x00, 0x00,
  0x01, 0x00, 0x00, 0x00, 0x40, 0x00, 0x00, 0x00, 0x02, 0x00, 0x00, 0x00,
  0xff, 0xff, 0xff, 0xff, 0x01, 0x00, 0x00, 0x00, 0x04, 0x00, 0x04, 0x00,
  0x04, 0x00, 0x00, 0x00, 0x21, 0x00, 0x00, 0x00, 0x73, 0x65, 0x72, 0x76,
  0x69, 0x6e, 0x67, 0x5f, 0x64, 0x65, 0x66, 0x61, 0x75, 0x6c, 0x74, 0x5f,
  0x6b, 0x65, 0x72, 0x61, 0x73, 0x5f, 0x74, 0x65, 0x6e, 0x73, 0x6f, 0x72,
  0x5f, 0x32, 0x32, 0x3a, 0x30, 0x00, 0x00, 0x00, 0x02, 0x00, 0x00, 0x00,
  0x01, 0x00, 0x00, 0x00, 0x01, 0x00, 0x00, 0x00, 0x02, 0x00, 0x00, 0x00,
  0x2c, 0x00, 0x00, 0x00, 0x10, 0x00, 0x00, 0x00, 0x0c, 0x00, 0x0c, 0x00,
  0x0b, 0x00, 0x00, 0x00, 0x00, 0x00, 0x04, 0x00, 0x0c, 0x00, 0x00, 0x00,
  0x09, 0x00, 0x00, 0x00, 0x00, 0x00, 0x00, 0x09, 0x0c, 0x00, 0x10, 0x00,
  0x0f, 0x00, 0x00, 0x00, 0x08, 0x00, 0x04, 0x00, 0x0c, 0x00, 0x00, 0x00,
  0x06, 0x00, 0x00, 0x00, 0x03, 0x00, 0x00, 0x00, 0x00, 0x00, 0x00, 0x06
};
unsigned int sine_model_FP16_quantized_tflite_len = 9108;
